▁xxunk	0
▁xxpad	0
▁xxbos	0
▁xxeos	0
▁xxfld	0
▁xxrep	0
▁xxwrep	0
▁xxup	0
▁xxmaj	0
<unk>	0
:	-2.96923
.	-3.23197
,	-3.48507
'	-3.49277
!	-3.64074
▁the	-3.6796
▁I	-3.84744
▁Phoenix	-3.90169
s	-3.93765
...	-4.03119
▁to	-4.12879
?	-4.21592
▁you	-4.36686
▁a	-4.4927
▁that	-4.60488
▁it	-4.67947
t	-4.71142
▁of	-4.86679
▁was	-4.90068
▁this	-5.09171
▁(	-5.09401
▁is	-5.11074
▁Edgeworth	-5.12487
▁in	-5.12998
▁"	-5.1746
-	-5.20727
▁Judge	-5.34224
▁Mr	-5.45407
▁Maya	-5.45673
▁The	-5.47168
▁have	-5.47459
▁	-5.51629
▁Ema	-5.55219
▁be	-5.59592
ing	-5.59722
▁on	-5.59747
▁You	-5.59771
▁me	-5.62047
▁and	-5.70179
▁for	-5.72967
n	-5.73205
m	-5.78326
▁It	-5.81274
▁What	-5.84696
▁he	-5.85289
▁at	-5.85643
▁That	-5.87127
▁what	-5.87369
▁...	-5.91037
▁with	-5.93511
▁do	-5.93859
▁my	-5.94495
▁Wright	-5.99517
▁did	-6.00878
▁not	-6.01664
▁Gumshoe	-6.02478
▁about	-6.02736
!?	-6.05296
▁can	-6.06848
▁evidence	-6.07148
▁your	-6.07256
▁like	-6.08115
▁one	-6.08144
▁know	-6.1275
ed	-6.14679
d	-6.17394
"	-6.182
▁there	-6.18788
▁just	-6.19052
▁we	-6.19087
▁all	-6.19312
▁see	-6.20818
▁don	-6.23679
re	-6.26321
▁out	-6.26834
▁here	-6.27242
▁think	-6.28381
▁would	-6.2891
▁right	-6.3293
...)	-6.35617
▁are	-6.3624
▁This	-6.38156
▁so	-6.38406
▁time	-6.40563
▁L	-6.40855
▁her	-6.42783
▁she	-6.44098
▁no	-6.44608
▁But	-6.4556
▁him	-6.47367
▁Your	-6.47838
▁A	-6.48927
▁Well	-6.50176
▁He	-6.53383
▁So	-6.54375
▁his	-6.54893
▁up	-6.54895
ll	-6.55306
.)	-6.55417
▁from	-6.55854
ve	-6.55857
▁Karma	-6.57155
eads	-6.57272
▁Gant	-6.57539
▁Honor	-6.58095
▁who	-6.58916
▁Marshall	-6.59826
▁witness	-6.60528
I	-6.60778
▁now	-6.61442
▁were	-6.61727
▁but	-6.64594
▁Lana	-6.64971
▁had	-6.65796
▁murder	-6.66432
▁Oh	-6.68297
!)	-6.6845
▁something	-6.693
▁case	-6.69441
▁as	-6.69917
▁And	-6.71315
▁get	-6.72305
▁There	-6.72832
▁say	-6.72936
."	-6.7336
▁M	-6.73647
▁could	-6.75501
▁mean	-6.75746
▁Detective	-6.76878
▁well	-6.77352
▁day	-6.77906
▁has	-6.78222
▁Present	-6.78813
y	-6.78875
▁been	-6.78956
▁Objection	-6.80203
▁No	-6.82197
▁sure	-6.84068
▁if	-6.84113
▁back	-6.85068
▁Yes	-6.85111
▁court	-6.86057
...?	-6.86847
▁us	-6.88126
▁an	-6.89077
▁Mia	-6.89898
▁when	-6.90161
▁only	-6.9159
▁got	-6.92272
▁look	-6.92413
▁Nick	-6.92895
▁will	-6.94555
▁If	-6.95447
▁Hold	-6.9633
▁go	-6.97476
▁victim	-6.97979
▁they	-6.99609
▁tell	-7.01705
▁Angel	-7.02245
▁does	-7.02925
▁room	-7.03469
▁Why	-7.03655
▁We	-7.0435
▁Chief	-7.04416
▁more	-7.04946
▁trial	-7.05064
▁testimony	-7.05236
▁Press	-7.05248
▁crime	-7.05497
▁really	-7.05621
▁should	-7.06723
▁any	-7.06932
▁must	-7.07073
▁anything	-7.07688
▁Huh	-7.07814
▁Hmm	-7.08527
!"	-7.08677
▁She	-7.09344
▁White	-7.12479
▁thing	-7.14017
▁too	-7.14159
)	-7.1448
▁sir	-7.14829
▁why	-7.15237
▁then	-7.15285
▁Samurai	-7.15523
▁Oldbag	-7.1644
▁after	-7.19687
▁take	-7.20817
▁by	-7.21786
▁going	-7.22002
▁Lotta	-7.22018
▁found	-7.23082
▁saw	-7.2312
▁man	-7.24204
▁Let	-7.2464
▁else	-7.25997
▁said	-7.27125
▁Hey	-7.27914
▁over	-7.27947
▁guess	-7.28507
▁Vasquez	-7.28644
▁way	-7.29032
▁before	-7.29058
▁some	-7.30999
▁defense	-7.31
ly	-7.31401
▁Goodman	-7.31768
▁other	-7.32038
▁make	-7.32098
▁Grossberg	-7.34203
▁Prosecutor	-7.34207
▁want	-7.34988
▁heard	-7.3515
▁W	-7.35211
▁again	-7.35405
e	-7.36099
?)	-7.37084
▁or	-7.37937
▁Take	-7.38294
▁How	-7.40199
▁Now	-7.4029
▁happened	-7.40853
▁how	-7.41015
▁Butz	-7.4127
▁name	-7.43
▁Yeah	-7.43227
▁They	-7.43946
▁little	-7.44345
▁--	-7.44412
▁show	-7.44564
el	-7.44793
▁good	-7.44832
▁years	-7.45021
▁Ste	-7.45223
▁two	-7.45269
▁Meekins	-7.45706
▁thought	-7.46447
▁course	-7.46626
▁scene	-7.47939
▁need	-7.48206
▁Powers	-7.48512
▁Y	-7.49195
▁wrong	-7.49391
▁Cody	-7.49447
▁believe	-7.49647
▁where	-7.51407
▁wasn	-7.51851
▁E	-7.52021
▁April	-7.52255
*	-7.53126
▁place	-7.53746
▁Police	-7.54456
▁find	-7.54502
▁Then	-7.56475
▁Look	-7.57071
▁S	-7.57312
▁pal	-7.5823
▁nothing	-7.58868
▁Hammer	-7.59286
▁into	-7.60761
The	-7.61926
▁took	-7.61964
▁let	-7.62218
▁proof	-7.62508
▁knife	-7.62989
▁Please	-7.63108
▁Ver	-7.63298
▁Court	-7.64242
▁ask	-7.64265
▁off	-7.64645
▁ago	-7.67029
▁even	-7.67264
▁better	-7.67401
▁B	-7.67592
▁blood	-7.67813
▁still	-7.6799
▁never	-7.67997
▁very	-7.68078
▁May	-7.68454
▁may	-7.69119
▁Um	-7.69562
▁Don	-7.69576
▁ID	-7.71875
▁sorry	-7.72397
▁Skye	-7.72589
▁than	-7.73308
▁kind	-7.73701
▁try	-7.73829
▁Studio	-7.74115
▁One	-7.74529
▁seems	-7.74952
▁Examine	-7.75019
▁come	-7.75293
▁Officer	-7.75787
▁much	-7.76228
▁first	-7.76265
▁body	-7.76314
▁Miss	-7.76341
▁Department	-7.76855
▁might	-7.76872
▁Will	-7.76881
▁around	-7.76882
▁someone	-7.76906
▁Order	-7.76931
▁detective	-7.7766
▁person	-7.78198
▁Just	-7.78263
▁left	-7.78336
▁these	-7.7835
▁point	-7.7864
▁today	-7.7888
what	-7.79064
▁*	-7.79109
▁security	-7.79343
▁picture	-7.80277
▁our	-7.81383
▁prove	-7.81851
▁please	-7.81855
▁defendant	-7.8257
▁down	-7.826
▁My	-7.83038
▁camera	-7.83047
▁Uh	-7.8343
▁doing	-7.83836
▁office	-7.84497
▁used	-7.84537
▁them	-7.84714
▁Right	-7.85482
▁photo	-7.85543
▁Not	-7.85853
▁phone	-7.87293
▁Record	-7.87306
▁card	-7.87881
▁remember	-7.8908
▁Ah	-7.89142
▁quite	-7.89365
▁those	-7.89396
▁went	-7.89413
▁sister	-7.89456
▁give	-7.90807
▁weapon	-7.91415
▁call	-7.91533
▁pretty	-7.92197
▁When	-7.92453
▁away	-7.93075
▁Office	-7.93265
▁isn	-7.93828
"?	-7.94345
▁von	-7.94572
ring	-7.94776
▁Lea	-7.9492
▁stand	-7.95419
?"	-7.95501
▁always	-7.95873
▁last	-7.95912
▁reason	-7.96353
▁exactly	-7.96629
▁clock	-7.96654
▁Do	-7.96698
▁people	-7.97398
▁made	-7.97476
▁D	-7.97684
▁hear	-7.97752
▁Sorry	-7.98224
▁cross	-7.98404
▁Maybe	-7.99295
▁seen	-7.99432
▁guy	-7.99637
▁won	-7.99796
▁...!	-8.00196
▁locker	-8.00484
▁Incident	-8.01253
▁police	-8.0126
▁piece	-8.01926
▁Part	-8.0209
▁old	-8.03274
▁through	-8.03331
▁Wait	-8.03404
▁In	-8.03606
▁talk	-8.04042
▁help	-8.04232
▁things	-8.04241
▁statement	-8.04439
▁un	-8.05005
able	-8.05198
▁yes	-8.05201
▁H	-8.05312
▁Wh	-8.05916
▁run	-8.06107
▁lot	-8.06328
▁P	-8.06436
▁???:	-8.0695
▁O	-8.07562
▁bad	-8.07812
▁Can	-8.08008
▁saying	-8.08037
▁boat	-8.0876
▁murderer	-8.0886
▁present	-8.09434
▁real	-8.09528
▁use	-8.10284
▁Fey	-8.10473
▁second	-8.10544
ds	-8.1075
▁Are	-8.10876
▁N	-8.11047
▁keep	-8.11311
▁Of	-8.11415
▁enough	-8.12102
▁Witness	-8.12156
ember	-8.12159
▁du	-8.12749
▁Talk	-8.12917
▁anyone	-8.13061
▁already	-8.1388
▁Darke	-8.139
▁talking	-8.14201
▁Dec	-8.14748
▁lake	-8.14789
▁another	-8.14847
▁truth	-8.15743
▁okay	-8.1588
▁matter	-8.15981
▁am	-8.16126
▁couldn	-8.16137
▁Le	-8.16223
▁question	-8.16284
▁guard	-8.17364
What	-8.18025
▁told	-8.18129
▁seem	-8.18207
▁mind	-8.18248
▁knew	-8.18502
▁because	-8.18523
▁yet	-8.18573
▁photograph	-8.18828
▁being	-8.19332
▁prosecution	-8.19413
▁Move	-8.19422
▁looks	-8.19789
▁boy	-8.2003
!!!	-8.2004
This	-8.20121
▁Two	-8.20457
▁hard	-8.20482
▁As	-8.20897
▁killed	-8.21406
▁Larry	-8.21495
▁Who	-8.21668
▁wanted	-8.21675
▁work	-8.2231
▁came	-8.22318
▁hand	-8.22403
▁ever	-8.2278
ads	-8.22992
▁Did	-8.23119
▁Manella	-8.23276
▁Lake	-8.2329
▁same	-8.23302
▁own	-8.23371
▁prosecutor	-8.23558
▁long	-8.23598
▁Law	-8.24287
▁means	-8.24661
▁U	-8.24703
in	-8.25483
▁put	-8.25651
er	-8.25815
▁incident	-8.26336
▁number	-8.26652
▁t	-8.26657
▁wonder	-8.27008
▁Th	-8.27202
▁shot	-8.28034
▁video	-8.28344
▁After	-8.29303
▁lawyer	-8.29792
▁car	-8.29806
▁their	-8.29819
▁R	-8.30181
▁strange	-8.30305
▁Penny	-8.3042
le	-8.30545
examination	-8.30623
"...	-8.30629
▁studio	-8.31918
▁claim	-8.31921
▁night	-8.32637
▁inside	-8.32641
▁To	-8.33679
▁next	-8.33686
▁Room	-8.33795
▁Offices	-8.3413
▁attorney	-8.34194
▁contradiction	-8.3432
▁add	-8.34764
▁DL	-8.35092
It	-8.35225
▁Umm	-8.35426
▁head	-8.35637
▁Anything	-8.35862
▁everything	-8.35864
▁lost	-8.35903
▁Something	-8.36172
yes	-8.36293
▁myself	-8.36994
!?)	-8.37008
▁door	-8.37032
▁understand	-8.3704
▁once	-8.37153
▁though	-8.37226
-6	-8.37476
▁looking	-8.37501
▁All	-8.37568
That	-8.38034
▁side	-8.38103
▁tomorrow	-8.38118
▁check	-8.39111
...?)	-8.39128
;	-8.39237
▁Okay	-8.39697
▁problem	-8.39934
▁Starr	-8.4043
▁However	-8.4052
▁done	-8.40681
▁b	-8.40801
a	-8.40872
▁February	-8.41606
▁probably	-8.41606
-9	-8.4181
▁eyes	-8.42262
▁Sahwit	-8.42795
▁leads	-8.43298
amp	-8.43513
▁chance	-8.43629
▁October	-8.44
▁yesterday	-8.44001
▁clearly	-8.44046
▁investigation	-8.44856
getting	-8.4516
▁lady	-8.4522
▁information	-8.45271
▁bullet	-8.45909
▁leave	-8.46008
..."	-8.46379
▁Bellboy	-8.46454
▁many	-8.46858
▁feel	-8.46952
▁See	-8.46995
en	-8.47069
▁Co	-8.47142
▁clear	-8.47175
▁&	-8.4772
▁oh	-8.4808
▁idea	-8.48533
▁girl	-8.48572
on	-8.48979
out	-8.49345
▁Er	-8.5024
▁fingerprints	-8.5114
▁moment	-8.51246
all	-8.51374
▁report	-8.5204
▁Un	-8.52055
▁big	-8.5216
▁afraid	-8.52891
▁Tell	-8.53035
▁T	-8.53245
▁Gourdy	-8.53279
▁yeah	-8.53493
appears	-8.53575
▁suspect	-8.53796
▁er	-8.53825
▁end	-8.54115
▁Where	-8.54504
r	-8.54624
▁true	-8.55592
▁broken	-8.55712
▁Miles	-8.55764
▁uh	-8.559
▁SL	-8.55989
▁guilty	-8.56028
▁final	-8.5689
▁C	-8.56901
▁testify	-8.58004
▁Hmph	-8.58334
▁innocent	-8.5834
▁actually	-8.58379
▁judge	-8.58388
▁Photo	-8.58401
Hmm	-8.5863
▁Here	-8.58878
,"	-8.59688
▁least	-8.5972
▁asked	-8.60162
"!	-8.60486
or	-8.61119
▁jar	-8.61143
▁Yogi	-8.61198
▁Was	-8.61338
▁wait	-8.62012
▁continue	-8.62384
▁taken	-8.62475
▁desk	-8.62593
▁Center	-8.62594
▁yourself	-8.62611
"...?	-8.63164
▁klik	-8.64062
▁doubt	-8.6407
▁trailer	-8.64071
▁killer	-8.64112
▁Cross	-8.64151
▁supposed	-8.64264
▁bit	-8.65239
▁lunch	-8.65524
▁three	-8.65575
▁PM	-8.65613
▁Eve	-8.65796
▁Wow	-8.65848
▁part	-8.66364
▁words	-8.66811
▁anyway	-8.67151
▁days	-8.67179
▁face	-8.67378
▁called	-8.67552
▁himself	-8.68622
▁every	-8.68634
▁fired	-8.68661
▁most	-8.68743
▁hah	-8.68799
S	-8.68809
▁minutes	-8.69581
▁times	-8.6964
▁At	-8.69884
▁safe	-8.7017
▁Affairs	-8.70173
▁later	-8.70223
▁Actually	-8.70393
▁says	-8.70963
▁gave	-8.71744
▁making	-8.71882
h	-8.72657
▁order	-8.72679
▁care	-8.72732
M	-8.72743
▁um	-8.72919
▁open	-8.73153
▁bet	-8.73309
▁station	-8.73382
▁Badger	-8.73412
▁maybe	-8.7343
▁sound	-8.73617
▁Gourd	-8.73856
Mr	-8.73988
▁answer	-8.7497
▁Payne	-8.7501
▁further	-8.75012
▁explain	-8.75014
▁cloth	-8.75015
▁against	-8.75144
▁lying	-8.75175
He	-8.7585
▁under	-8.75909
▁set	-8.76224
▁light	-8.76488
▁new	-8.76813
▁Really	-8.76888
▁2	-8.77254
H	-8.77524
▁looked	-8.77631
▁chief	-8.78371
▁figure	-8.78389
▁tried	-8.78401
▁since	-8.78415
▁break	-8.78429
▁officer	-8.78602
but	-8.79655
▁suppose	-8.79866
▁change	-8.79934
▁such	-8.80107
▁everyone	-8.80114
▁correct	-8.80151
th	-8.80513
A	-8.80877
▁turn	-8.80898
▁p	-8.81752
▁morning	-8.81852
▁Testimony	-8.81853
▁important	-8.81856
▁hotel	-8.81857
▁costume	-8.81928
▁Anyway	-8.81957
▁Does	-8.8206
▁pardner	-8.8211
g	-8.82154
▁Blue	-8.82196
▁pistol	-8.83636
▁Hammond	-8.83636
▁finger	-8.83637
▁forget	-8.83844
▁best	-8.84518
▁tape	-8.85005
So	-8.85087
She	-8.85196
no	-8.85351
▁bellboy	-8.8549
▁Hart	-8.8551
▁life	-8.85551
▁gunshot	-8.85559
▁Have	-8.85908
se	-8.87232
▁great	-8.87306
▁floor	-8.87306
▁while	-8.87307
cle	-8.87417
▁meeting	-8.87444
▁begin	-8.87468
▁job	-8.87545
▁15	-8.87659
▁On	-8.87844
til	-8.88046
▁list	-8.88277
▁fact	-8.88422
▁fine	-8.88462
▁y	-8.88741
▁behind	-8.89229
right	-8.89388
▁shop	-8.89661
▁ran	-8.89703
No	-8.89965
it	-8.90485
▁park	-8.90956
▁serious	-8.91066
▁death	-8.91151
▁gone	-8.91162
▁late	-8.91307
▁F	-8.91325
▁hope	-8.91414
ncle	-8.91756
o	-8.91856
xamination	-8.91906
▁detectives	-8.92555
▁request	-8.92989
Uh	-8.9305
▁also	-8.93076
▁verdict	-8.93076
▁different	-8.93087
▁poor	-8.93087
▁written	-8.93103
▁either	-8.93135
Talk	-8.93174
▁Nothing	-8.93263
▁Hah	-8.933
▁w	-8.9404
etention	-8.94371
wait	-8.94471
▁far	-8.9491
▁hit	-8.95019
▁stuff	-8.95076
▁father	-8.95078
▁window	-8.9509
▁thinking	-8.95141
▁sort	-8.95235
▁bring	-8.95263
▁Thank	-8.95348
▁Could	-8.95358
▁star	-8.96101
▁Or	-8.96293
istrict	-8.97054
▁mention	-8.97091
▁Jack	-8.97116
▁somewhere	-8.97132
▁died	-8.97294
▁Good	-8.97388
▁3	-8.97478
▁steak	-8.975
▁"(	-8.97666
You	-8.98306
that	-8.99195
▁law	-8.99206
▁tsk	-8.99231
▁badge	-8.99242
▁simple	-8.99256
▁close	-9.0004
Well	-9.0117
▁certain	-9.01283
▁director	-9.01341
▁suspicious	-9.01413
▁Still	-9.0142
▁which	-9.01451
▁Perhaps	-9.01453
▁contradicts	-9.01568
▁For	-9.01705
the	-9.01811
▁Isn	-9.03261
▁play	-9.03392
▁Thanks	-9.03421
▁almost	-9.0357
▁outside	-9.0365
▁trouble	-9.03746
▁hold	-9.03833
▁word	-9.04031
▁Criminal	-9.041
▁murdered	-9.05192
▁s	-9.05558
▁path	-9.05626
▁home	-9.05748
▁Think	-9.05842
▁soon	-9.0636
▁start	-9.06429
▁studios	-9.07112
▁dead	-9.08041
▁fell	-9.08049
▁25	-9.0807
▁G	-9.08183
▁Try	-9.08294
▁ho	-9.08643
▁stop	-9.09782
▁Studios	-9.09919
▁An	-9.10131
each	-9.10321
Your	-9.10345
▁impossible	-9.10366
▁ready	-9.10467
If	-9.10679
▁pieces	-9.10692
▁coming	-9.1071
▁Attorney	-9.10989
rought	-9.1156
▁haven	-9.11719
▁Any	-9.12101
led	-9.12163
▁cut	-9.12189
▁Me	-9.12231
▁f	-9.12315
▁listen	-9.1241
▁26	-9.12698
▁alone	-9.12707
▁cold	-9.12724
▁anywhere	-9.12734
▁odd	-9.12741
▁painting	-9.12781
▁Like	-9.12797
▁huh	-9.13369
▁fight	-9.13576
▁Show	-9.13604
up	-9.13768
▁feeling	-9.13927
▁press	-9.14776
▁expect	-9.14988
▁sense	-9.15051
▁telling	-9.15061
▁stabbed	-9.1514
▁few	-9.15145
▁Cell	-9.15147
▁cell	-9.15156
bout	-9.15157
▁woman	-9.15185
▁Neil	-9.15233
▁certainly	-9.15243
▁record	-9.15329
less	-9.1537
▁[	-9.15532
▁Evidence	-9.15535
▁Yet	-9.15632
▁1	-9.1571
▁Gre	-9.15861
▁enter	-9.15902
▁sit	-9.16481
▁charge	-9.16548
w	-9.16586
ressing	-9.16839
▁heh	-9.17439
▁Indeed	-9.17641
▁caretaker	-9.17642
▁memory	-9.17653
▁gate	-9.17671
▁24	-9.1776
▁arrested	-9.17764
▁Wrighto	-9.1794
▁Entrance	-9.18041
▁questioning	-9.18434
▁Is	-9.1852
▁letter	-9.18552
▁pay	-9.18782
▁both	-9.19944
▁past	-9.20141
▁Report	-9.20202
▁money	-9.20202
▁elevator	-9.20203
▁busy	-9.20204
▁Robert	-9.20302
▁five	-9.20407
▁trust	-9.20487
Oh	-9.20562
▁hurt	-9.20773
▁file	-9.20965
▁table	-9.20974
▁school	-9.21173
▁its	-9.21176
▁re	-9.21378
▁examine	-9.21763
▁win	-9.22718
▁coffee	-9.22833
▁involved	-9.22846
▁high	-9.22849
▁Thinker	-9.22928
▁eat	-9.2294
▁possible	-9.22942
▁running	-9.22945
▁opened	-9.23084
▁watching	-9.23099
▁Someone	-9.23161
al	-9.23184
▁fingerprint	-9.23485
▁d	-9.23558
▁4	-9.23622
▁award	-9.2388
...!	-9.24002
▁clues	-9.24251
▁proves	-9.24306
▁admit	-9.24554
▁speak	-9.25242
▁rest	-9.25312
▁Badge	-9.25467
▁explanation	-9.25537
▁nice	-9.25571
▁together	-9.25588
▁pick	-9.25618
▁story	-9.25623
examine	-9.26052
▁Jo	-9.26081
il	-9.2614
Now	-9.26176
ose	-9.26588
▁action	-9.2669
▁known	-9.27596
▁questions	-9.27991
▁deal	-9.28001
▁rather	-9.28314
▁handprint	-9.28317
▁18	-9.28359
▁Sure	-9.2836
▁His	-9.28364
▁Remember	-9.28367
▁hiding	-9.28393
▁hoh	-9.28402
▁worry	-9.28418
▁become	-9.28456
▁pull	-9.28531
▁knock	-9.28674
▁Would	-9.28773
▁wall	-9.28813
]	-9.2883
▁along	-9.28917
▁date	-9.29118
▁prints	-9.29334
▁minute	-9.29489
▁lose	-9.29492
--	-9.29493
ld	-9.29509
▁kids	-9.29827
Wait	-9.29982
Clear	-9.30283
D	-9.3034
you	-9.30467
▁Spear	-9.3117
▁missing	-9.31279
▁Because	-9.31341
▁hmm	-9.31349
▁sleeping	-9.31389
▁lie	-9.314
▁goes	-9.3149
▁Area	-9.31541
well	-9.31613
▁happen	-9.31688
ever	-9.31746
mployee	-9.31777
▁Global	-9.31919
sorry	-9.32024
▁criminal	-9.32318
▁client	-9.32327
▁thanks	-9.32549
▁dream	-9.32653
ground	-9.33424
▁Parrot	-9.3411
▁possibility	-9.34227
▁Sal	-9.34358
▁Polly	-9.34708
▁sign	-9.34884
▁clean	-9.35069
▁plant	-9.35102
▁watch	-9.35478
te	-9.35737
aking	-9.35793
▁witnessed	-9.36476
▁pro	-9.36812
▁facts	-9.36814
▁defend	-9.37006
▁luck	-9.37016
▁arrest	-9.3708
▁twice	-9.37139
▁Christmas	-9.37141
▁immediately	-9.37147
▁wiretap	-9.37198
▁September	-9.3726
▁With	-9.37283
▁wish	-9.37291
▁shoe	-9.37338
▁glass	-9.37349
▁pressing	-9.3753
▁holding	-9.37538
▁Say	-9.37557
Nick	-9.37897
▁cases	-9.38075
▁young	-9.38254
▁Park	-9.38486
▁spot	-9.38772
▁St	-9.38943
▁tak	-9.39288
Maya	-9.3972
▁Security	-9.40265
▁stuck	-9.40266
▁conversation	-9.40267
▁obvious	-9.40273
▁adjourned	-9.40278
▁Only	-9.40404
▁Never	-9.40417
▁closed	-9.406
▁Some	-9.40728
▁wondering	-9.41169
Why	-9.41211
▁eye	-9.41264
es	-9.4157
▁Note	-9.4181
▁hate	-9.42706
▁free	-9.42876
▁appears	-9.42917
P	-9.4324
▁half	-9.43484
▁midnight	-9.43491
▁tank	-9.435
▁blow	-9.43508
▁became	-9.4351
▁committed	-9.43567
▁message	-9.43683
▁accusations	-9.4371
▁bother	-9.43907
▁Whoa	-9.43937
▁red	-9.44389
▁accident	-9.44545
▁heart	-9.44744
through	-9.44773
▁medium	-9.44996
▁month	-9.45045
▁clue	-9.45061
▁spirit	-9.45116
▁objection	-9.45276
mon	-9.45358
▁happens	-9.45663
▁kid	-9.46208
"!?	-9.46618
▁state	-9.46689
▁empty	-9.46825
▁quick	-9.46835
▁producer	-9.46839
▁bottom	-9.46885
▁Worthy	-9.46891
▁Lawyer	-9.46896
uce	-9.46909
▁locked	-9.46983
▁sounds	-9.47002
▁Jake	-9.47023
▁fast	-9.47029
▁Dam	-9.47095
▁Come	-9.47247
▁kinda	-9.47434
▁mine	-9.47538
▁meaning	-9.47645
▁unt	-9.47896
▁1:00	-9.48069
▁options	-9.48212
▁standing	-9.48231
▁knows	-9.49195
▁kill	-9.49807
we	-9.501
▁move	-9.50241
▁AMD	-9.5026
▁business	-9.50264
▁possibly	-9.50273
▁computer	-9.50273
▁assistant	-9.50313
▁world	-9.50334
▁straight	-9.50336
▁Everyone	-9.50417
▁V	-9.50461
▁cannot	-9.50475
▁First	-9.50542
▁learn	-9.50677
is	-9.50766
▁Apparently	-9.509
twe	-9.50927
▁stay	-9.50951
▁force	-9.5116
▁top	-9.51293
How	-9.51634
▁object	-9.51658
▁fall	-9.51817
Detective	-9.52158
▁year	-9.52223
obby	-9.52311
There	-9.52373
▁Be	-9.52507
▁5	-9.527
U	-9.52704
est	-9.53227
▁reveal	-9.53345
▁borrow	-9.53685
▁perfect	-9.5379
’	-9.53829
▁Knife	-9.5384
▁parrot	-9.53841
▁Transcript	-9.53843
▁Jar	-9.53844
▁drew	-9.5385
▁Gate	-9.53861
▁Sir	-9.53882
▁23	-9.53903
▁duty	-9.53924
efore	-9.53981
▁27	-9.54019
▁Bluecorp	-9.54053
▁current	-9.54058
▁hours	-9.54183
▁turned	-9.54258
▁muffler	-9.54418
▁overru	-9.54485
▁air	-9.54915
Defendant	-9.55063
▁mistake	-9.55212
▁service	-9.55786
▁Ho	-9.55973
▁points	-9.56027
beep	-9.56421
utopsy	-9.56494
▁hands	-9.56598
▁accept	-9.56612
ry	-9.56795
00	-9.56982
ce	-9.57475
▁belong	-9.57487
▁quiet	-9.57493
▁data	-9.57538
▁trunk	-9.57544
▁bottle	-9.57545
▁earlier	-9.57545
▁Tsk	-9.57547
▁beginning	-9.57552
▁Listen	-9.57561
▁men	-9.57618
▁faulty	-9.57664
▁decisive	-9.57694
▁motive	-9.57715
▁write	-9.57768
▁training	-9.57782
▁forgotten	-9.57792
▁loud	-9.57842
▁Br	-9.579
▁self	-9.57954
▁Alright	-9.57993
▁giv	-9.58175
▁Poor	-9.58231
▁waiting	-9.58291
me	-9.58502
▁needed	-9.58768
Look	-9.59222
▁waste	-9.59303
▁lies	-9.59433
▁poster	-9.59594
▁less	-9.59799
f	-9.59893
▁secret	-9.59923
▁live	-9.6053
▁follow	-9.61265
▁fault	-9.6137
sniff	-9.61379
▁huff	-9.61386
▁apartment	-9.614
▁mother	-9.61409
▁happy	-9.61418
▁related	-9.61418
▁mad	-9.61426
▁cool	-9.6146
▁shield	-9.6146
▁page	-9.61468
▁hanging	-9.61471
▁indeed	-9.61523
▁slow	-9.61543
▁finished	-9.61604
▁scientific	-9.61604
▁WP	-9.61652
hey	-9.61713
▁meet	-9.61887
▁helped	-9.62121
▁Go	-9.6222
▁autopsy	-9.62488
▁6	-9.62625
after	-9.63031
bone	-9.63086
Yeah	-9.63113
Police	-9.6312
▁Dep	-9.63157
Redd	-9.63335
▁shows	-9.63368
▁monster	-9.63498
▁trap	-9.63565
ting	-9.6375
▁takes	-9.63779
anni	-9.63938
▁Ma	-9.64112
gotten	-9.64296
Visit	-9.64331
▁touch	-9.64361
E	-9.64691
▁walk	-9.64924
▁film	-9.65128
▁Prosecutors	-9.65367
▁Correct	-9.65379
▁caught	-9.65385
▁sitting	-9.65404
▁large	-9.65411
Guilty	-9.65421
▁Give	-9.6568
▁Missile	-9.65803
▁changed	-9.65956
▁special	-9.66011
▁Hello	-9.66453
▁working	-9.66581
bang	-9.66722
▁HA	-9.67022
Maybe	-9.67391
ally	-9.67437
yeah	-9.67478
▁photos	-9.67557
▁tip	-9.67588
▁Every	-9.67742
ther	-9.67946
em	-9.68733
C	-9.68775
rain	-9.68911
▁th	-9.6921
▁penalize	-9.6928
▁fool	-9.69383
HO	-9.69384
ur	-9.69537
▁particular	-9.69545
▁arrived	-9.69617
▁missed	-9.69631
▁single	-9.69634
▁received	-9.69642
▁surprised	-9.69655
▁wearing	-9.69815
▁noticed	-9.69841
▁9:00	-9.69953
▁jump	-9.70145
▁Man	-9.70669
▁J	-9.71
▁calling	-9.71253
▁test	-9.71389
O	-9.71466
Huh	-9.71497
blade	-9.71721
▁connection	-9.71935
W	-9.71944
We	-9.72067
▁exist	-9.72079
▁option	-9.72104
squ	-9.7232
ory	-9.72416
ation	-9.72932
nna	-9.73148
▁Her	-9.73445
know	-9.73537
▁stole	-9.73574
▁2:30	-9.73624
▁c	-9.73634
▁Trophy	-9.73893
▁department	-9.73893
▁kidding	-9.73914
▁confused	-9.73928
▁drum	-9.7393
▁courtroom	-9.74008
▁anymore	-9.74012
▁recall	-9.74061
▁decided	-9.7413
▁16	-9.74167
▁white	-9.74169
▁erased	-9.74179
▁none	-9.7422
▁Wha	-9.74386
▁eh	-9.7456
▁gloves	-9.74589
▁continued	-9.74593
▁pass	-9.74603
awk	-9.74619
▁By	-9.74956
▁Eh	-9.75199
room	-9.75209
▁die	-9.75248
▁calls	-9.75353
▁ha	-9.75448
▁likely	-9.75834
▁Heh	-9.76097
why	-9.76106
nd	-9.7619
Let	-9.76219
▁sad	-9.76295
Great	-9.7639
Hey	-9.76421
▁claims	-9.76556
▁friend	-9.76673
▁paper	-9.76729
▁line	-9.7674
▁sell	-9.76929
▁mess	-9.77142
▁whe	-9.77471
(	-9.77524
ies	-9.77546
▁shock	-9.78004
▁HE	-9.7812
▁agree	-9.78188
▁j	-9.78193
go	-9.78258
▁stab	-9.78339
▁protect	-9.78355
▁alibi	-9.78439
equent	-9.78439
▁Shop	-9.78441
▁small	-9.78442
▁ceremony	-9.78442
▁moving	-9.78446
▁felt	-9.78452
▁Lunch	-9.78457
▁PMD	-9.78461
▁Phone	-9.78465
▁Card	-9.78475
▁unusual	-9.78498
▁easy	-9.78518
▁grade	-9.78528
▁Trailer	-9.7853
▁Crime	-9.78537
▁front	-9.78614
▁sake	-9.78615
▁attention	-9.78622
▁class	-9.78634
▁Back	-9.7864
▁traces	-9.78714
▁appear	-9.78731
▁started	-9.78736
▁Dee	-9.78737
▁normal	-9.78743
▁moved	-9.78745
sigh	-9.78751
▁speaking	-9.78954
▁Were	-9.79073
▁...?	-9.79125
▁tie	-9.79899
to	-9.80328
at	-9.80471
ling	-9.80722
left	-9.80992
eel	-9.81065
▁drawer	-9.8131
▁movie	-9.81383
▁water	-9.81383
▁cause	-9.81424
▁files	-9.81567
ble	-9.81571
▁shown	-9.81776
▁print	-9.82071
ular	-9.82675
▁tea	-9.82688
▁carry	-9.82976
▁imagine	-9.83025
ublic	-9.8316
▁amount	-9.83201
▁apparently	-9.83206
▁remind	-9.8321
▁TV	-9.83213
subs	-9.83222
▁dear	-9.83231
▁herself	-9.83238
▁notice	-9.83256
▁higher	-9.8327
▁Guard	-9.83293
▁discovered	-9.83294
▁Exactly	-9.83295
▁Block	-9.83298
▁Today	-9.8331
▁accused	-9.83311
▁forgot	-9.8332
▁strike	-9.83321
▁scary	-9.83325
▁Bah	-9.83327
▁career	-9.83341
▁suit	-9.83343
▁passed	-9.83366
▁somehow	-9.83377
▁hide	-9.83442
▁Stop	-9.83505
▁stick	-9.83555
▁reading	-9.83825
▁direct	-9.83897
T	-9.83913
HEE	-9.83984
▁witnesses	-9.84011
▁seeing	-9.84099
et	-9.84197
▁i	-9.84232
▁Sis	-9.8431
▁ma	-9.84566
he	-9.84606
looking	-9.84784
▁fill	-9.85012
ah	-9.85238
And	-9.85567
▁ya	-9.85817
B	-9.85951
▁asking	-9.86083
▁noise	-9.86395
▁Letter	-9.86495
and	-9.86659
▁lead	-9.86731
▁prosecutors	-9.86755
▁killing	-9.86821
▁g	-9.87381
▁promise	-9.87961
▁Blood	-9.88102
▁Camera	-9.882
▁Magistrate	-9.882
▁pocket	-9.882
▁perhaps	-9.88201
▁Account	-9.88201
▁Unfortunately	-9.88201
▁investigator	-9.88207
▁testified	-9.88208
▁rental	-9.88215
▁puff	-9.88225
▁automatic	-9.88233
▁convinced	-9.88254
▁Time	-9.88303
▁pole	-9.88303
▁foot	-9.88319
▁True	-9.88344
▁hair	-9.88403
▁lack	-9.88441
▁Which	-9.88501
▁solved	-9.88542
▁ended	-9.88876
▁oil	-9.88944
▁mistaken	-9.8898
▁owe	-9.89132
▁h	-9.89327
nstable	-9.89351
▁bloody	-9.89638
▁tapp	-9.89748
▁details	-9.89903
igh	-9.90425
Studio	-9.91165
k	-9.91225
Right	-9.91227
▁dress	-9.91253
Gourd	-9.91279
Okay	-9.91347
▁act	-9.91441
cross	-9.9148
Don	-9.91502
▁detail	-9.91719
▁buy	-9.93135
▁broke	-9.93139
ion	-9.93141
▁due	-9.9341
▁strong	-9.93417
▁Udgey	-9.93464
▁ridiculous	-9.93464
▁difference	-9.93464
▁radio	-9.93467
▁occurred	-9.93472
▁glad	-9.93474
▁worse	-9.93476
▁chest	-9.9348
▁several	-9.93485
▁session	-9.935
▁completely	-9.93501
▁save	-9.93508
▁instant	-9.93523
▁declared	-9.93556
▁funny	-9.93564
▁absolutely	-9.93565
▁metal	-9.93601
▁near	-9.93627
▁statue	-9.93674
▁rumors	-9.93821
▁hole	-9.93842
▁feet	-9.939
having	-9.94133
▁bag	-9.94243
serial	-9.9429
▁catch	-9.94311
shall	-9.9432
▁Victim	-9.94438
▁Lot	-9.94676
st	-9.94703
▁read	-9.94875
Wright	-9.95119
▁plans	-9.95395
▁plan	-9.95424
▁leaves	-9.95508
▁match	-9.96426
Show	-9.9699
▁voice	-9.97077
▁l	-9.97537
utside	-9.97711
ck	-9.97723
Edgeworth	-9.97774
▁excuse	-9.97844
ending	-9.98011
▁k	-9.98732
▁news	-9.98906
▁honest	-9.98962
▁entire	-9.98969
▁Continue	-9.99019
▁Excuse	-9.99019
▁favor	-9.99019
▁opinion	-9.99019
▁Switch	-9.9902
▁windbag	-9.9902
▁purpose	-9.9902
▁definitely	-9.99021
▁struck	-9.99021
▁rehearsal	-9.99022
▁Data	-9.99022
▁chair	-9.99024
▁19	-9.99025
▁switch	-9.99025
▁munch	-9.99026
▁image	-9.99031
▁investigate	-9.99036
▁camping	-9.99045
▁detention	-9.99071
▁investigating	-9.99083
▁Ahem	-9.99109
▁dark	-9.99115
▁famous	-9.99122
▁clothes	-9.99124
▁coat	-9.99155
▁dragg	-9.99221
▁Turnabout	-9.99356
▁ahead	-9.99373
▁mentioned	-9.99445
▁fair	-9.99467
▁stolen	-9.99543
▁sometimes	-9.99608
▁events	-9.99676
z	-9.99726
ite	-10.0001
l	-10.0007
▁Case	-10.0012
▁willing	-10.0079
long	-10.0088
▁mis	-10.0128
...!?	-10.0181
▁pictures	-10.0224
Samurai	-10.0227
▁contradictions	-10.0231
▁decide	-10.0238
▁scream	-10.0245
▁clients	-10.0252
guilty	-10.0278
▁cardkey	-10.0286
K	-10.0287
▁button	-10.0297
▁wipe	-10.0298
▁boyfriend	-10.0305
▁power	-10.0307
▁plate	-10.0314
▁Re	-10.0323
▁gun	-10.0325
▁note	-10.0343
▁Too	-10.0358
...!)	-10.0362
▁thank	-10.0382
▁blackmail	-10.0393
▁Fro	-10.041
▁pr	-10.0424
ity	-10.0442
▁blame	-10.0467
▁ref	-10.0473
▁fan	-10.048
▁personal	-10.0486
▁entrance	-10.049
▁terrible	-10.049
▁screen	-10.049
▁apologies	-10.049
▁hurry	-10.049
▁Photograph	-10.049
▁Ayup	-10.049
▁revenge	-10.049
▁contradictory	-10.049
▁Aww	-10.0491
▁dumb	-10.0491
▁brother	-10.0491
▁Yep	-10.0492
▁slipped	-10.0492
▁HAW	-10.0492
▁fallen	-10.0497
▁error	-10.0498
▁solid	-10.0501
▁suicide	-10.0501
▁fishing	-10.0509
▁walked	-10.0513
▁attack	-10.0513
▁coincidence	-10.0513
don	-10.0514
▁pills	-10.0514
▁longer	-10.0515
▁Nah	-10.0515
▁statements	-10.0517
▁ate	-10.0517
▁shooting	-10.0518
▁tag	-10.0525
p	-10.0525
▁forgery	-10.0526
▁expected	-10.0528
Not	-10.0556
▁listening	-10.0563
▁allow	-10.0566
▁van	-10.0607
▁opening	-10.0615
▁remembered	-10.0623
▁wind	-10.0624
ncy	-10.0635
▁de	-10.0639
rote	-10.0662
▁K	-10.0688
ept	-10.0693
▁Borrow	-10.0707
▁pointing	-10.0764
one	-10.079
am	-10.084
Chief	-10.0847
▁comes	-10.0866
▁breath	-10.0887
DL	-10.0905
SL	-10.0909
▁conclusion	-10.0924
▁direction	-10.0924
Criminal	-10.0954
▁lock	-10.096
ifteen	-10.0963
▁Boat	-10.0987
ental	-10.1069
▁laugh	-10.1085
▁full	-10.1107
▁deep	-10.1111
▁main	-10.1112
ic	-10.1114
▁Bookshelf	-10.1115
▁Monkey	-10.1115
▁emerge	-10.1115
▁mumbling	-10.1115
▁giant	-10.1115
▁model	-10.1115
▁expensive	-10.1115
▁sharp	-10.1115
▁planned	-10.1115
▁honor	-10.1116
▁worried	-10.1116
▁detector	-10.1116
▁Change	-10.1117
▁distance	-10.1118
▁drink	-10.112
▁usually	-10.1124
▁conceal	-10.1124
▁steal	-10.1125
▁luminol	-10.1127
▁trade	-10.1127
▁gott	-10.1128
▁lunches	-10.1129
▁public	-10.1129
▁closely	-10.113
▁blocked	-10.1131
▁realized	-10.1136
▁ice	-10.1141
▁box	-10.1143
▁position	-10.1151
▁view	-10.1151
▁love	-10.1152
▁patrolman	-10.1153
▁Evil	-10.1153
ment	-10.1165
▁pasta	-10.1166
▁Murder	-10.1177
▁tough	-10.1179
▁Under	-10.118
▁Five	-10.1182
ness	-10.1194
Ver	-10.1194
▁playing	-10.1198
▁Whew	-10.121
▁indicate	-10.1241
ng	-10.1289
▁ideas	-10.1338
▁Olde	-10.1359
how	-10.1385
▁yours	-10.1391
▁drive	-10.1393
ess	-10.1407
man	-10.1464
▁9	-10.1491
▁De	-10.1493
▁books	-10.1497
Gah	-10.1505
▁kick	-10.1539
an	-10.154
i	-10.1552
▁refuse	-10.1564
Whoops	-10.1564
order	-10.1568
Ugh	-10.1574
▁system	-10.1585
▁concern	-10.1598
▁File	-10.1601
huh	-10.1692
1	-10.1731
▁consider	-10.1764
▁raise	-10.1768
▁careful	-10.1778
▁lunchbox	-10.1779
▁Tokyo	-10.1782
▁monkey	-10.1782
▁responsible	-10.1782
▁location	-10.1782
▁salary	-10.1782
▁familiar	-10.1782
▁recess	-10.1782
▁heavy	-10.1782
▁neck	-10.1782
▁armor	-10.1782
▁Check	-10.1782
▁planning	-10.1782
▁recently	-10.1782
▁fence	-10.1783
▁Huff	-10.1783
▁short	-10.1783
▁lightning	-10.1783
▁leaving	-10.1784
▁truly	-10.1784
▁afternoon	-10.1785
▁wild	-10.1787
▁respond	-10.1791
▁obviously	-10.1793
▁design	-10.1793
▁spiky	-10.1793
▁week	-10.1793
▁track	-10.1794
▁reckon	-10.1794
▁proposal	-10.1794
▁shut	-10.1795
▁calm	-10.1795
▁attacked	-10.1799
▁covered	-10.1801
▁scared	-10.1802
▁Add	-10.1802
▁item	-10.1802
▁script	-10.1805
▁complete	-10.1805
▁forged	-10.1806
▁stabbing	-10.1808
▁research	-10.1813
▁Dogs	-10.1826
▁filming	-10.1832
▁Should	-10.1845
▁stated	-10.1845
ir	-10.1852
▁heck	-10.1856
▁Item	-10.1883
▁checked	-10.1885
▁7	-10.1891
▁worth	-10.1896
▁talked	-10.1915
▁ends	-10.1945
▁commit	-10.1958
isitor	-10.1987
of	-10.2001
oh	-10.2004
▁feels	-10.2047
Court	-10.2055
indow	-10.2063
▁co	-10.2066
▁per	-10.2109
▁Ge	-10.211
▁harm	-10.2144
But	-10.2161
L	-10.2174
▁dreams	-10.2184
ent	-10.2236
Do	-10.2256
Just	-10.226
Something	-10.2274
▁pri	-10.2282
▁("	-10.2283
▁vacation	-10.2287
Who	-10.2288
▁joke	-10.2313
King	-10.2321
▁stain	-10.2325
▁transferal	-10.2329
▁type	-10.2331
▁La	-10.235
Here	-10.2384
&#160;	-10.2398
▁shoulder	-10.2398
sir	-10.2414
▁Ga	-10.2435
▁toward	-10.2448
▁proceed	-10.2461
▁control	-10.2465
▁realize	-10.2474
▁return	-10.2482
▁wound	-10.2483
▁article	-10.2496
▁interrupt	-10.2496
▁demand	-10.2496
▁student	-10.2496
▁10:00	-10.2496
▁Oooh	-10.2496
▁food	-10.2498
▁useful	-10.2499
▁suddenly	-10.2499
▁began	-10.25
▁Ergo	-10.25
▁boss	-10.2501
▁writing	-10.2502
▁treat	-10.2506
▁spear	-10.2508
▁grudge	-10.2508
▁Wrong	-10.2509
▁Probably	-10.2509
▁shooter	-10.2511
▁key	-10.2512
▁seriously	-10.2515
▁Safe	-10.2523
▁conclusive	-10.2524
▁owner	-10.2525
▁manage	-10.2526
ounds	-10.2548
▁Gatewater	-10.2554
▁testing	-10.2555
cording	-10.263
my	-10.2635
▁Ha	-10.2653
▁hey	-10.2678
ta	-10.268
ddle	-10.2696
▁r	-10.2716
ain	-10.2739
▁ground	-10.2743
▁noon	-10.2763
▁book	-10.2818
ty	-10.2852
▁li	-10.2881
u	-10.2937
▁finding	-10.2946
▁lawyers	-10.2948
ink	-10.295
Mia	-10.2972
▁chase	-10.2973
ast	-10.2993
▁le	-10.2994
▁area	-10.3006
sic	-10.3037
von	-10.3046
Urk	-10.3057
Global	-10.3057
Hello	-10.3059
▁Du	-10.3063
▁machine	-10.3079
ight	-10.3083
▁visitor	-10.3092
ice	-10.3117
▁Ac	-10.313
ful	-10.3139
▁count	-10.314
6	-10.316
▁age	-10.3223
▁throw	-10.3237
▁draw	-10.324
▁guilt	-10.3253
▁bambina	-10.3265
▁circumstances	-10.3265
▁desperate	-10.3265
▁penalties	-10.3265
▁precinct	-10.3265
▁resume	-10.3265
▁1202	-10.3265
▁extreme	-10.3265
▁crazy	-10.3265
▁profile	-10.3265
▁unconscious	-10.3265
▁mysterious	-10.3265
▁binoculars	-10.3266
▁Rookie	-10.3266
▁reaction	-10.3266
▁yip	-10.3266
▁mystery	-10.3266
▁inquiry	-10.3266
▁amazing	-10.3266
▁Hotel	-10.3267
▁actual	-10.3269
▁angle	-10.3269
▁convicted	-10.327
▁carefully	-10.3272
▁More	-10.3275
▁link	-10.3276
▁samurai	-10.3278
▁Enough	-10.3279
▁Receipt	-10.3279
▁offense	-10.328
▁alright	-10.3281
▁Unless	-10.3284
▁lately	-10.3285
▁22	-10.3287
▁Nope	-10.3289
aren	-10.3289
▁cover	-10.3289
▁proceedings	-10.329
xplain	-10.3291
▁child	-10.3294
▁Funny	-10.3294
▁disappeared	-10.3296
▁gold	-10.3298
▁Way	-10.3298
▁Edgey	-10.3299
▁Left	-10.3312
▁Everything	-10.3313
▁monitors	-10.3319
▁following	-10.3325
▁examining	-10.3327
▁party	-10.3327
▁Proof	-10.3345
▁eating	-10.3352
▁results	-10.3378
▁hav	-10.3382
▁fresh	-10.34
▁fix	-10.3404
▁carrie	-10.3406
▁Got	-10.3419
.]	-10.3449
▁regula	-10.3452
▁clearing	-10.3459
▁paint	-10.346
▁miss	-10.3466
Zzzz	-10.3467
▁search	-10.3487
▁Mist	-10.3503
▁plates	-10.3505
▁10	-10.3566
N	-10.3578
▁wear	-10.3584
▁bone	-10.3589
oods	-10.3595
▁stopp	-10.3596
ide	-10.361
▁Great	-10.3643
▁black	-10.3653
▁reach	-10.3664
▁mistakes	-10.3677
nce	-10.3692
Y	-10.3697
think	-10.3705
▁o	-10.3725
rying	-10.3737
ince	-10.374
who	-10.3742
pen	-10.3749
Hold	-10.3799
rely	-10.38
R	-10.3801
▁dog	-10.3833
Please	-10.3844
arranged	-10.3848
really	-10.3848
Of	-10.3879
ow	-10.3885
▁remain	-10.389
▁burn	-10.3893
▁fun	-10.3896
Gourdy	-10.3897
▁wro	-10.3907
▁-	-10.3927
ni	-10.3975
Phoenix	-10.3995
▁sneak	-10.3997
gh	-10.4044
▁grow	-10.407
▁surprise	-10.4076
▁visit	-10.4077
▁deliver	-10.4084
▁erase	-10.4086
▁ball	-10.4097
▁screwdriver	-10.4099
▁testimonies	-10.4099
▁future	-10.4099
▁contempt	-10.4099
▁NOT	-10.4099
▁limitations	-10.4099
▁situation	-10.4099
▁approach	-10.4099
▁junk	-10.4099
▁enlargement	-10.4099
▁leather	-10.4099
▁30	-10.4099
▁clockwork	-10.41
▁country	-10.41
▁Mmph	-10.4102
▁apologize	-10.4103
▁injured	-10.4104
▁thick	-10.4106
▁entirely	-10.4106
▁useless	-10.4107
▁sight	-10.4108
▁markings	-10.4109
▁assure	-10.4115
▁cheer	-10.412
▁blue	-10.4121
▁dis	-10.4121
▁Tomorrow	-10.413
▁scarf	-10.4131
▁Finally	-10.4132
▁photographer	-10.4136
special	-10.4138
▁Ever	-10.4141
▁Head	-10.4142
▁cops	-10.4142
▁Charley	-10.4148
▁None	-10.4149
▁tap	-10.4149
▁recorded	-10.4153
▁Find	-10.4157
▁vest	-10.4157
▁guys	-10.4162
▁Nice	-10.4164
▁intention	-10.4174
▁dirt	-10.4179
▁lucky	-10.4181
▁meant	-10.4182
this	-10.4202
▁ring	-10.4208
▁code	-10.4229
are	-10.4254
▁sent	-10.4281
▁remains	-10.4282
▁Whatever	-10.4287
Neo	-10.4304
J	-10.4359
▁statu	-10.4378
▁King	-10.4406
▁cards	-10.4418
nswer	-10.4426
gor	-10.4427
▁friends	-10.4443
▁Kind	-10.4468
▁5:15	-10.4493
▁leg	-10.4507
▁hot	-10.4583
▁e	-10.4593
▁actions	-10.4658
▁numbers	-10.4662
llow	-10.4693
▁pain	-10.4704
▁awards	-10.4707
Ah	-10.4754
▁Sh	-10.4767
▁ones	-10.4768
When	-10.4769
▁cute	-10.4781
okay	-10.4783
Wow	-10.4793
▁met	-10.4799
▁bluff	-10.4814
▁mouth	-10.4815
▁smell	-10.4825
▁fire	-10.4827
ust	-10.4827
▁trail	-10.4844
▁stars	-10.4855
▁guest	-10.4862
▁push	-10.4874
▁wa	-10.4925
ate	-10.4936
▁gunshots	-10.4954
▁confess	-10.496
▁fish	-10.4969
▁mere	-10.4975
▁memo	-10.4992
▁flash	-10.4992
▁finish	-10.4996
▁cry	-10.5002
▁usual	-10.5006
▁specific	-10.5006
▁Fingerprint	-10.5008
▁Keith	-10.5008
▁appreciate	-10.5008
▁consequences	-10.5008
▁sufficient	-10.5008
▁television	-10.5008
▁Summary	-10.5008
▁vague	-10.5008
▁Interphone	-10.5008
▁dunno	-10.5008
▁identity	-10.5008
▁powder	-10.5008
▁mascot	-10.5008
▁judgment	-10.5008
▁Also	-10.5008
▁Queen	-10.5008
▁Locker	-10.5008
▁sensor	-10.5008
▁rubber	-10.5009
▁Play	-10.5009
▁sonny	-10.5009
▁satisfied	-10.5009
▁transferred	-10.501
▁living	-10.501
▁Ooh	-10.5011
▁building	-10.5012
▁hook	-10.5014
▁Texas	-10.5015
▁drain	-10.5016
▁forward	-10.5017
▁pressure	-10.5018
▁failed	-10.5019
▁human	-10.5023
▁family	-10.5023
▁Absolutely	-10.5023
▁Precisely	-10.5023
▁illegal	-10.5023
▁confessed	-10.5024
▁desert	-10.5026
▁mood	-10.5033
▁Hard	-10.5033
▁fishy	-10.5035
▁snacks	-10.5036
▁Mmm	-10.5036
▁dressed	-10.5039
▁remaining	-10.504
▁shocked	-10.5042
▁dancing	-10.5043
▁sleep	-10.5044
▁Strange	-10.5045
wink	-10.5047
▁borrowed	-10.505
▁harder	-10.505
▁raised	-10.5052
▁Fish	-10.5053
de	-10.5065
▁sword	-10.5069
▁acting	-10.5073
Desk	-10.5081
▁trees	-10.5099
▁irrelevant	-10.5101
▁Dick	-10.5103
▁places	-10.5104
▁aware	-10.5106
rew	-10.5107
ile	-10.5113
▁Bring	-10.515
▁stands	-10.5151
b	-10.5156
▁describe	-10.5171
▁presented	-10.5173
▁shape	-10.5173
▁dare	-10.5182
▁inspect	-10.5182
G	-10.5209
▁!!!	-10.5247
ped	-10.5276
▁con	-10.5301
▁powers	-10.5303
ying	-10.5311
ping	-10.5325
Ema	-10.5325
▁Whose	-10.5355
oe	-10.5359
▁bullets	-10.5361
king	-10.5368
▁beg	-10.5368
▁papers	-10.539
▁fit	-10.5436
▁ca	-10.5444
0	-10.5458
▁practical	-10.5492
▁beat	-10.5521
▁drop	-10.5529
▁proven	-10.5534
▁objections	-10.5549
▁cho	-10.5558
▁mi	-10.5564
▁Assum	-10.5571
ill	-10.5571
ak	-10.5581
2	-10.5585
Lana	-10.5636
▁11:50	-10.5681
▁pre	-10.5687
be	-10.5695
9	-10.5717
▁feelings	-10.5725
c	-10.5734
Officer	-10.5748
▁Though	-10.5763
aring	-10.5772
▁fear	-10.5783
Blue	-10.5791
▁blun	-10.5792
Polly	-10.5798
so	-10.5815
Did	-10.5839
▁rid	-10.5852
▁boats	-10.5882
ily	-10.5893
tally	-10.5922
fully	-10.5931
▁shoot	-10.5972
▁frame	-10.5981
▁label	-10.5989
▁regard	-10.5993
▁hid	-10.6005
uspect	-10.6006
▁solution	-10.6008
▁Article	-10.6008
▁Bambina	-10.6008
▁Manfred	-10.6008
▁Princess	-10.6008
▁cactus	-10.6008
▁handwriting	-10.6008
▁villain	-10.6008
▁Always	-10.6008
▁Wiretap	-10.6008
▁Cardkey	-10.6008
▁advice	-10.6008
▁newspaper	-10.6008
▁repeat	-10.6008
▁battle	-10.6008
▁Stub	-10.6008
▁possession	-10.6008
▁sustained	-10.6008
▁panicked	-10.6009
▁grate	-10.6009
▁policy	-10.6009
▁Quite	-10.601
▁trophy	-10.601
▁committee	-10.601
▁excited	-10.601
▁above	-10.601
▁scientifically	-10.6011
▁relevant	-10.6011
▁tired	-10.6012
▁nerve	-10.6012
▁role	-10.6012
Damn	-10.6014
▁scare	-10.6017
▁forgive	-10.6018
▁pointless	-10.602
▁sweet	-10.6022
▁quietly	-10.6022
▁study	-10.6023
▁CEO	-10.6023
▁million	-10.6024
▁Incidentally	-10.6024
▁Except	-10.6024
▁alive	-10.6024
▁legal	-10.6024
▁Next	-10.6024
▁updated	-10.6025
▁required	-10.6026
▁connected	-10.6029
▁district	-10.603
▁returned	-10.6031
▁issue	-10.6034
▁personally	-10.6037
▁donuts	-10.604
▁shadow	-10.6045
▁evil	-10.6045
▁nightmare	-10.6045
▁swear	-10.6048
▁interesting	-10.6048
▁refused	-10.605
▁saved	-10.605
▁dust	-10.6051
▁reflect	-10.6052
▁nap	-10.6053
▁carrying	-10.6082
▁contain	-10.6083
atch	-10.6084
▁Wendy	-10.6089
▁spend	-10.6089
▁Cough	-10.6093
▁assume	-10.6102
▁natural	-10.6108
▁filed	-10.6109
▁grave	-10.6109
▁contains	-10.6118
other	-10.6125
▁suspected	-10.6131
▁fanboy	-10.6136
▁AM	-10.6137
ance	-10.6169
ek	-10.6174
▁professional	-10.6181
▁fi	-10.6194
ish	-10.6213
▁post	-10.6219
▁lay	-10.6223
▁needs	-10.6234
▁fully	-10.6248
▁hero	-10.6249
▁bloodstain	-10.6266
▁types	-10.6273
dy	-10.6285
▁thoughts	-10.6298
▁mark	-10.6303
▁thin	-10.632
render	-10.6339
▁Ugh	-10.634
ag	-10.6342
tention	-10.6353
dom	-10.6364
uch	-10.6367
▁pa	-10.6388
F	-10.64
nother	-10.6431
▁ears	-10.6438
rump	-10.6458
▁offer	-10.6475
▁Nor	-10.6476
..	-10.6479
▁dispose	-10.6537
evidence	-10.6539
▁fake	-10.6545
▁forth	-10.6558
▁whom	-10.6564
▁shatter	-10.6575
hose	-10.6579
▁trials	-10.6613
▁theory	-10.6619
All	-10.6621
▁works	-10.6627
▁sur	-10.6644
uh	-10.6674
using	-10.6683
▁son	-10.6687
▁u	-10.6687
son	-10.669
▁v	-10.6704
▁others	-10.6706
▁wants	-10.6711
coming	-10.6757
us	-10.6766
▁Whaaaa	-10.6799
wh	-10.6814
For	-10.6816
ound	-10.6821
tted	-10.6829
boy	-10.6837
heard	-10.6839
did	-10.6845
Grr	-10.6874
Larry	-10.6879
▁knowing	-10.6889
▁condition	-10.6901
Case	-10.6904
Apparently	-10.6906
Poor	-10.6908
▁trick	-10.691
Victim	-10.691
ap	-10.6916
whoa	-10.6919
▁glove	-10.6939
▁bright	-10.6951
▁risk	-10.6956
▁bl	-10.698
thanks	-10.7007
unds	-10.7022
▁sh	-10.7036
▁50	-10.7041
▁orders	-10.7063
▁po	-10.7068
[	-10.7105
▁share	-10.7107
▁receiv	-10.7112
▁sudden	-10.7114
▁exact	-10.7114
uminol	-10.7115
▁Yo	-10.7117
pisode	-10.7117
▁confident	-10.7118
▁THAT	-10.7119
▁Whippersnapper	-10.7119
▁Floor	-10.7119
▁Glory	-10.7119
▁Lunchland	-10.7119
▁Pistol	-10.7119
▁bailiff	-10.7119
▁easily	-10.7119
▁oxygen	-10.7119
▁receipt	-10.7119
▁deceased	-10.7119
▁batteries	-10.7119
▁occupation	-10.7119
▁vital	-10.7119
▁critical	-10.7119
▁experience	-10.7119
▁enjoy	-10.7119
▁Bottle	-10.7119
▁popular	-10.7119
▁memories	-10.7119
▁easier	-10.7119
▁weakness	-10.7119
▁biggest	-10.7119
▁lights	-10.7119
▁Help	-10.7119
▁2:00	-10.712
▁Later	-10.712
▁pardon	-10.712
▁center	-10.712
▁Three	-10.712
▁contact	-10.7121
▁pair	-10.7123
▁impressed	-10.7123
▁submit	-10.7123
▁impressive	-10.7124
▁fought	-10.7124
▁deny	-10.7125
▁List	-10.7127
▁glasses	-10.7131
▁Hackins	-10.7132
▁ayup	-10.7136
▁silly	-10.7136
▁argument	-10.7137
▁Interesting	-10.7137
▁Memo	-10.7137
▁Meg	-10.7137
▁map	-10.7138
▁DJ	-10.7141
▁Tee	-10.7143
▁prepared	-10.7152
ver	-10.7153
▁quickly	-10.7154
▁often	-10.7155
▁Kiyance	-10.7161
▁closer	-10.7161
▁Although	-10.7162
▁anyhow	-10.7163
▁Day	-10.7163
mming	-10.7164
▁Oof	-10.7168
▁apart	-10.7168
▁early	-10.7171
ers	-10.7176
▁team	-10.7178
▁grown	-10.7181
▁Fine	-10.7188
▁justice	-10.7188
▁20	-10.7192
▁tears	-10.7193
▁woods	-10.7194
▁hello	-10.7214
:*	-10.722
▁Might	-10.7228
▁loss	-10.7228
▁ab	-10.7235
▁cleared	-10.7269
▁town	-10.7269
rust	-10.7313
▁en	-10.7321
▁propos	-10.7355
▁hel	-10.7373
▁lookin	-10.7411
▁n	-10.7426
▁su	-10.7439
▁low	-10.7445
▁tight	-10.7452
▁dropp	-10.7457
▁reports	-10.7459
▁snu	-10.7465
▁escape	-10.7489
age	-10.7498
hole	-10.7518
▁sl	-10.7527
▁noises	-10.755
ddy	-10.7559
over	-10.7566
▁west	-10.76
arking	-10.7626
▁Aren	-10.7641
▁THE	-10.7655
ous	-10.7664
▁pe	-10.7672
sh	-10.7682
▁announce	-10.7693
ong	-10.7721
▁attorneys	-10.7726
▁months	-10.7761
▁shots	-10.7764
time	-10.7795
▁hang	-10.7812
dmitted	-10.7814
just	-10.782
▁store	-10.7828
▁despi	-10.783
ne	-10.7855
▁cl	-10.7865
not	-10.7915
contradiction	-10.7921
oof	-10.7927
▁Compare	-10.7972
cough	-10.7976
na	-10.7986
▁weak	-10.7988
▁fate	-10.7997
▁Bo	-10.7999
victim	-10.8001
ant	-10.8024
▁Old	-10.8028
x	-10.8041
▁prov	-10.8042
▁se	-10.8046
side	-10.8056
place	-10.8086
Order	-10.8097
▁Lo	-10.8109
saw	-10.8132
Miles	-10.8138
Where	-10.8142
Evidence	-10.8149
Entrance	-10.8151
muffler	-10.8156
▁mountain	-10.8165
▁backdrop	-10.8172
▁handle	-10.8181
▁result	-10.8185
▁employee	-10.8187
wind	-10.8192
▁fin	-10.8192
▁respect	-10.8212
ause	-10.8225
In	-10.8233
nder	-10.8256
▁program	-10.8294
They	-10.83
▁suggest	-10.8318
▁interest	-10.8323
Examin	-10.8328
▁gather	-10.8338
▁sentence	-10.8343
▁declare	-10.8346
▁require	-10.8348
▁quit	-10.8352
▁fail	-10.836
▁wh	-10.8365
▁discuss	-10.8368
▁Bottom	-10.8369
▁Noodle	-10.8369
▁Picture	-10.8369
▁Understood	-10.8369
▁Video	-10.8369
▁album	-10.8369
▁beautiful	-10.8369
▁example	-10.8369
▁nervous	-10.8369
▁separate	-10.8369
▁sheriff	-10.8369
▁unexpected	-10.8369
▁valuable	-10.8369
▁Cloth	-10.8369
▁ghost	-10.8369
▁instead	-10.8369
▁equipment	-10.8369
▁Besides	-10.8369
▁Billy	-10.8369
▁ankle	-10.8369
▁except	-10.8369
▁support	-10.8369
▁extra	-10.8369
▁disguise	-10.8369
▁weird	-10.8369
▁bird	-10.8369
▁staff	-10.8369
▁Impossible	-10.8369
▁pipe	-10.8369
▁Goodbye	-10.8369
▁faith	-10.8369
▁slightly	-10.8369
▁Detector	-10.8369
▁perpetrator	-10.8369
▁proud	-10.8369
▁responsibility	-10.8369
▁speech	-10.8369
▁provide	-10.837
▁Dude	-10.837
▁third	-10.837
▁Real	-10.837
▁tiny	-10.837
▁crowd	-10.837
▁busted	-10.837
▁hunch	-10.837
▁saluting	-10.8371
▁bunch	-10.8371
Special	-10.8371
▁collect	-10.8372
▁unlocked	-10.8373
▁edge	-10.8374
▁smile	-10.8374
▁simply	-10.8375
▁Therefore	-10.8377
▁elsewhere	-10.8379
▁depend	-10.8385
▁perfectly	-10.8388
▁Regard	-10.8388
▁color	-10.8388
▁recognize	-10.8388
▁YOU	-10.8389
▁bigwigs	-10.8389
▁bail	-10.8391
▁Fifteen	-10.8391
▁burned	-10.8391
▁nobody	-10.8393
▁ruined	-10.8394
▁prosecuting	-10.8397
Argh	-10.8399
▁injury	-10.84
ook	-10.8401
▁dig	-10.8403
▁crack	-10.8407
▁methods	-10.8408
▁Am	-10.8409
stable	-10.8415
▁blank	-10.8416
▁Little	-10.8416
▁premeditated	-10.8417
▁drawing	-10.8423
▁revealed	-10.8427
▁rare	-10.8432
▁laughing	-10.8432
▁actor	-10.8442
▁Thus	-10.8443
▁accepted	-10.8446
dies	-10.8446
▁badly	-10.8449
▁conc	-10.8453
▁aff	-10.8462
▁accord	-10.8468
▁bound	-10.8468
▁touching	-10.847
ge	-10.8472
▁walking	-10.8472
do	-10.8478
▁Nobody	-10.8489
▁sp	-10.8498
▁sub	-10.8513
▁happening	-10.852
▁whippersnapper	-10.8549
▁st	-10.8557
▁ME	-10.856
▁headed	-10.8567
▁employees	-10.858
▁sweat	-10.858
▁scenes	-10.8586
Again	-10.8595
fabricated	-10.8599
▁aside	-10.8629
body	-10.8631
▁smells	-10.8632
▁28	-10.8636
▁drops	-10.8653
ach	-10.8658
▁Out	-10.8691
ost	-10.8693
▁nose	-10.8706
▁Urk	-10.8727
▁items	-10.8743
▁wha	-10.8747
old	-10.8757
gain	-10.8793
sk	-10.8798
▁locks	-10.8819
▁al	-10.8861
▁4:00	-10.8862
Th	-10.8879
▁lives	-10.8934
▁create	-10.8937
ious	-10.8967
3	-10.8973
rench	-10.8996
▁step	-10.9009
!*	-10.9052
rushed	-10.9069
▁names	-10.9123
eason	-10.9128
▁assign	-10.9146
ya	-10.9185
ary	-10.9187
▁ex	-10.921
▁5:00	-10.9245
murder	-10.93
▁fr	-10.9301
▁glue	-10.9322
ried	-10.9346
▁Ri	-10.937
▁records	-10.9373
▁ro	-10.9404
▁youth	-10.9446
Prosecutor	-10.9452
Grossberg	-10.9456
7	-10.9476
nothing	-10.9499
▁gentle	-10.952
ch	-10.953
Fey	-10.9546
▁Shut	-10.9549
▁steaks	-10.9549
Room	-10.9553
Actually	-10.9563
Pa	-10.9571
▁gr	-10.9572
open	-10.9575
▁organ	-10.9578
Good	-10.9579
Whew	-10.9584
▁cost	-10.9589
excuse	-10.9592
▁fee	-10.9592
▁partner	-10.9594
inter	-10.9602
▁rule	-10.9619
▁whoa	-10.9622
if	-10.9628
leeping	-10.9642
▁form	-10.9644
Old	-10.9651
▁m	-10.9666
4	-10.9681
▁art	-10.9707
ging	-10.9744
▁spoke	-10.9756
▁release	-10.9772
▁arrive	-10.9781
▁lockers	-10.9783
rage	-10.9786
▁mock	-10.9787
▁enlarge	-10.9797
executive	-10.9797
▁ROFL	-10.9797
▁Script	-10.9797
▁Statue	-10.9797
▁Trilogy	-10.9797
▁affidavit	-10.9797
▁available	-10.9797
▁conjecture	-10.9797
▁culprit	-10.9797
▁incriminat	-10.9797
▁instincts	-10.9797
▁intimidat	-10.9797
▁jacket	-10.9797
▁medicine	-10.9797
▁opposite	-10.9797
▁reconsider	-10.9797
▁reconvene	-10.9797
▁restaurant	-10.9797
▁saloon	-10.9797
▁significant	-10.9797
▁silence	-10.9797
▁stupid	-10.9797
▁surgery	-10.9797
▁trivial	-10.9797
▁university	-10.9797
▁exhaust	-10.9797
▁fashion	-10.9797
▁Bullet	-10.9797
▁welcome	-10.9797
▁alleged	-10.9797
▁dangerous	-10.9797
▁performance	-10.9797
▁silent	-10.9797
lutely	-10.9798
▁enlighten	-10.9798
▁response	-10.9798
▁motto	-10.9798
▁otherwise	-10.9798
▁dearie	-10.9798
▁tidy	-10.9798
▁divider	-10.9798
▁foolish	-10.9798
▁erasing	-10.9798
▁nine	-10.9799
▁common	-10.9799
▁plainly	-10.9799
Dammit	-10.9799
▁valid	-10.9799
▁horrible	-10.98
▁exercise	-10.98
▁everywhere	-10.98
▁yellow	-10.9801
▁helpful	-10.9803
▁Secret	-10.9804
▁sky	-10.9804
▁upset	-10.9805
digital	-10.9807
Sometimes	-10.9807
▁warm	-10.9808
▁fog	-10.9809
▁triggered	-10.9809
▁teary	-10.9809
▁suspicion	-10.981
▁waterfall	-10.981
▁Sister	-10.9811
▁necessary	-10.9811
Was	-10.9812
▁21	-10.9813
▁removed	-10.9814
▁sale	-10.9815
THIN	-10.9815
▁lesson	-10.9816
▁interested	-10.9816
▁enemy	-10.9819
▁Second	-10.982
▁benefit	-10.982
▁partition	-10.982
▁Prospector	-10.982
▁Resignation	-10.9821
▁Bad	-10.9821
▁produce	-10.9821
▁flustered	-10.9822
▁legend	-10.9822
▁four	-10.9825
▁smart	-10.9826
▁fled	-10.9837
▁Yup	-10.9844
▁detect	-10.9844
▁handled	-10.9845
▁Frank	-10.9852
▁allowed	-10.9852
▁People	-10.9852
▁Scientifically	-10.9853
▁worn	-10.9865
▁itself	-10.9869
▁ahem	-10.9873
end	-10.9876
▁tonight	-10.9894
▁pops	-10.9897
▁la	-10.9911
▁shards	-10.9926
wee	-10.9933
▁bear	-10.9933
▁dock	-10.994
ial	-10.9941
▁rock	-10.9948
▁hostage	-10.995
▁Ro	-10.9958
▁dealing	-10.9965
▁troubled	-10.9973
ut	-10.9974
▁Name	-10.9985
▁investigati	-10.9989
▁intend	-11.0008
▁Yan	-11.0019
▁basic	-11.0022
▁painful	-11.0045
red	-11.0051
ER	-11.0066
▁questioned	-11.0068
istic	-11.0088
etter	-11.0091
▁handed	-11.0098
▁referr	-11.0106
▁br	-11.012
▁fatal	-11.0121
▁dogs	-11.013
▁hoo	-11.0131
▁12	-11.0137
▁testifying	-11.0138
▁machines	-11.0166
▁sole	-11.0176
ond	-11.0186
day	-11.0218
▁moments	-11.0224
▁pin	-11.0242
▁cameras	-11.0257
▁Compar	-11.0302
ar	-11.0316
ord	-11.0316
▁dealt	-11.0321
where	-11.0362
forging	-11.0368
▁wasting	-11.0368
▁bu	-11.0378
▁helping	-11.0378
officially	-11.0387
▁movies	-11.0392
▁Gr	-11.0396
▁IS	-11.0397
▁polish	-11.0409
▁pla	-11.0411
▁Swi	-11.0435
▁Test	-11.0452
ated	-11.0465
RE	-11.0487
etal	-11.0505
▁similar	-11.0528
▁reads	-11.0542
id	-11.0546
▁surre	-11.0607
pret	-11.0683
trip	-11.0722
▁sta	-11.0753
▁Speak	-11.0797
your	-11.0801
as	-11.0817
ack	-11.0892
▁ch	-11.0897
▁total	-11.0904
Year	-11.093
ven	-11.0939
searching	-11.0949
our	-11.0973
Is	-11.0993
aseless	-11.1011
eems	-11.1029
▁bare	-11.1033
ny	-11.1045
Yes	-11.1054
▁Forge	-11.1054
...!?)	-11.1056
White	-11.1072
▁impa	-11.1075
dle	-11.1084
Wh	-11.1092
▁va	-11.1096
▁seconds	-11.1112
▁teach	-11.1123
Cody	-11.1138
proof	-11.1149
▁com	-11.1188
▁verif	-11.1217
Tell	-11.1222
Really	-11.1228
sweat	-11.1232
Someone	-11.1241
▁unfortunate	-11.1246
Alright	-11.1247
secret	-11.1247
▁term	-11.1255
▁account	-11.1255
To	-11.1259
▁contradict	-11.1265
▁fragment	-11.1265
▁footprint	-11.1265
▁lists	-11.127
Whatever	-11.1271
lock	-11.1275
un	-11.1305
▁sometime	-11.1306
▁Mos	-11.1306
My	-11.1308
▁tree	-11.1313
▁cup	-11.1313
Her	-11.1351
▁hour	-11.1352
▁drag	-11.1396
aware	-11.1409
On	-11.1418
▁occur	-11.1432
▁deserve	-11.1441
ether	-11.1441
▁determine	-11.1442
▁breaks	-11.1445
▁figur	-11.1445
▁relax	-11.1447
▁defeat	-11.1449
▁officers	-11.1451
rd	-11.1451
ho	-11.1455
▁profession	-11.1462
▁"7777777"	-11.1464
▁Affidavit	-11.1464
▁Blackmail	-11.1464
▁Director	-11.1464
▁Fluid	-11.1464
▁Screwdriver	-11.1464
▁Yesterday	-11.1464
▁decision	-11.1464
▁explosion	-11.1464
▁fiancee	-11.1464
▁fluid	-11.1464
▁language	-11.1464
▁miracle	-11.1464
▁persistent	-11.1464
▁premises	-11.1464
▁stomach	-11.1464
▁telephone	-11.1464
▁themselves	-11.1464
▁transpired	-11.1464
▁warrant	-11.1464
▁Testify	-11.1464
▁humor	-11.1464
▁relationship	-11.1464
▁adult	-11.1464
▁Movie	-11.1464
▁punishment	-11.1464
▁shirt	-11.1464
▁attitude	-11.1464
▁corner	-11.1464
▁dinner	-11.1464
▁completion	-11.1464
▁display	-11.1464
▁sightseeing	-11.1464
▁folks	-11.1464
▁access	-11.1464
▁scattered	-11.1464
▁Normally	-11.1464
▁penalty	-11.1464
▁flew	-11.1464
▁bodies	-11.1464
▁buddy	-11.1464
▁summon	-11.1464
▁unclear	-11.1465
▁agency	-11.1465
▁grateful	-11.1465
▁Alone	-11.1465
▁footage	-11.1465
▁allowance	-11.1465
CK	-11.1465
▁Course	-11.1465
▁submitted	-11.1465
▁baby	-11.1465
▁duties	-11.1465
▁Plate	-11.1465
▁gentlemen	-11.1465
▁history	-11.1465
osmetics	-11.1466
▁ascertain	-11.1466
▁impact	-11.1466
▁winning	-11.1466
▁LOL	-11.1466
▁fourth	-11.1466
▁episode	-11.1467
▁difficult	-11.1467
▁Quick	-11.1467
▁laid	-11.1467
▁struggle	-11.1467
▁starters	-11.1467
▁meteor	-11.1467
▁info	-11.1468
▁properly	-11.1468
▁stage	-11.1468
▁performed	-11.1469
▁afterwards	-11.1469
haired	-11.1469
▁shelf	-11.1469
▁loose	-11.147
▁identify	-11.147
▁city	-11.1471
▁chip	-11.1471
▁Mmmph	-11.1471
▁granted	-11.1472
▁winter	-11.1472
▁Neat	-11.1472
▁lunchboxes	-11.1473
▁forge	-11.1473
▁Know	-11.1473
ecisive	-11.1474
▁rescued	-11.1475
▁flee	-11.1476
▁accus	-11.1476
▁Fire	-11.1477
▁flying	-11.1478
▁bought	-11.1478
▁grasping	-11.1478
▁reader	-11.1478
▁Need	-11.148
▁pound	-11.148
▁Rare	-11.1481
▁warned	-11.1481
hippie	-11.1482
▁zeal	-11.1483
▁genius	-11.1485
▁accurate	-11.1485
▁Other	-11.1487
▁eager	-11.1488
▁determined	-11.1489
▁hunting	-11.1491
▁cheap	-11.1491
▁sofa	-11.1492
▁popper	-11.1493
ubber	-11.1493
▁stinks	-11.1493
▁charm	-11.1493
▁Shoe	-11.1494
▁allegations	-11.1495
▁flashed	-11.1495
▁gavel	-11.1496
▁sooner	-11.1497
ouquet	-11.1498
▁however	-11.1501
let	-11.1501
▁General	-11.1504
▁lips	-11.1505
▁woke	-11.1506
▁suggesting	-11.1507
▁bull	-11.1509
Compari	-11.1511
▁Pole	-11.1511
Pressing	-11.1511
▁roll	-11.1512
▁Keep	-11.1519
science	-11.1519
▁confessing	-11.1524
▁accomplice	-11.1529
▁tale	-11.1529
▁wig	-11.1534
▁meter	-11.1542
▁Bloodstain	-11.1549
▁drawn	-11.1551
aretaker	-11.1557
▁collection	-11.1559
▁moon	-11.156
▁stairs	-11.1565
▁watched	-11.1565
▁Congratulations	-11.1568
ive	-11.157
▁ladder	-11.1571
▁board	-11.158
▁logical	-11.1586
ey	-11.1599
rate	-11.1609
▁Somehow	-11.1611
▁requested	-11.1614
▁picking	-11.1622
ie	-11.1631
disturbing	-11.164
▁Brrr	-11.1646
▁scen	-11.1649
▁tackle	-11.1653
▁weapons	-11.1661
▁nowhere	-11.1661
▁seven	-11.1664
▁forever	-11.167
▁swi	-11.1671
▁fighting	-11.169
elieve	-11.1707
ist	-11.1711
▁fade	-11.1711
▁handy	-11.1716
▁...&#160;	-11.1718
▁observe	-11.1725
seen	-11.1739
V	-11.1745
▁cra	-11.177
▁bloodstains	-11.1783
like	-11.1789
▁scar	-11.1789
▁lighting	-11.179
▁burger	-11.1803
for	-11.1808
eek	-11.1854
▁ta	-11.1857
▁lame	-11.1877
▁Erm	-11.1884
▁crimes	-11.1891
mile	-11.19
cy	-11.1915
▁forgetting	-11.192
idn	-11.1974
▁photographing	-11.2064
ug	-11.2087
▁spen	-11.2095
mine	-11.2098
rete	-11.2105
▁chances	-11.2113
een	-11.2118
itch	-11.2126
lass	-11.2139
nt	-11.214
▁wrapp	-11.2145
▁ten	-11.2162
▁six	-11.2177
▁Hm	-11.2191
pe	-11.2198
HHH	-11.22
teak	-11.2218
▁reasoning	-11.2218
▁lines	-11.223
▁exists	-11.224
uess	-11.2247
▁guessed	-11.2247
▁cru	-11.2251
yon	-11.2254
▁cast	-11.227
▁Gah	-11.2273
▁wip	-11.2276
▁witnessing	-11.2279
ntion	-11.2294
aargh	-11.2296
▁qu	-11.2299
ted	-11.23
▁gu	-11.2301
EL	-11.2306
Ma	-11.2321
▁2:	-11.2335
light	-11.2336
ied	-11.2355
▁secrets	-11.236
▁stor	-11.2397
▁2:15	-11.243
▁Make	-11.2431
way	-11.2444
efense	-11.248
▁tone	-11.2482
crime	-11.2497
anel	-11.2505
2"	-11.2561
get	-11.2567
Kinda	-11.2617
8	-11.2628
ged	-11.2646
ably	-11.2647
▁pur	-11.2668
▁tests	-11.2674
▁hee	-11.2678
ze	-11.2687
▁hell	-11.2691
▁insist	-11.2694
▁notes	-11.2718
▁size	-11.2752
▁ste	-11.2763
▁charges	-11.2797
▁matters	-11.2805
Ahh	-11.2837
op	-11.2848
witness	-11.2849
something	-11.2885
sevensevenseven	-11.2887
look	-11.2914
▁Set	-11.2919
▁fla	-11.2926
▁def	-11.2932
very	-11.2935
badgering	-11.297
▁sea	-11.2982
hard	-11.2984
when	-11.2998
▁holds	-11.3029
▁snap	-11.3034
▁conduct	-11.3046
▁sho	-11.3051
▁Sto	-11.3056
listic	-11.3066
thank	-11.3071
sue	-11.3078
again	-11.3089
refer	-11.3093
um	-11.3114
▁flower	-11.3125
called	-11.3129
stic	-11.3135
Ge	-11.3138
ntered	-11.314
Sorry	-11.3167
liber	-11.3172
One	-11.3179
▁transfer	-11.3186
pray	-11.3188
Two	-11.3196
▁examination	-11.3197
▁rang	-11.3207
aise	-11.323
Umm	-11.3233
Hah	-11.3236
▁dad	-11.3237
▁rank	-11.3238
▁chess	-11.3238
▁hotdog	-11.3239
▁choice	-11.324
Missile	-11.3244
Come	-11.3247
Proof	-11.3248
Boat	-11.3248
hostage	-11.3249
irrelevant	-11.3251
▁taste	-11.3251
Five	-11.3251
Dick	-11.3252
Thanks	-11.3253
Under	-11.3254
natural	-11.3256
▁horse	-11.3267
▁material	-11.3269
▁sets	-11.3272
▁Ru	-11.3291
▁4:00.	-11.3297
nyone	-11.3299
▁earthquake	-11.33
▁shard	-11.3302
head	-11.333
till	-11.3367
▁costumes	-11.3369
Prove	-11.3371
▁pl	-11.3386
rring	-11.3394
ME	-11.3411
makes	-11.342
▁warn	-11.3421
▁imagin	-11.3423
▁receive	-11.3426
▁brief	-11.3427
▁snoop	-11.343
▁injur	-11.3438
MA	-11.3439
▁remove	-11.3442
▁abandon	-11.3446
▁faint	-11.3447
▁trigger	-11.3448
▁inform	-11.3455
▁block	-11.3457
▁base	-11.3457
▁smooth	-11.3459
magine	-11.346
▁proper	-11.3463
posi	-11.3464
▁license	-11.3464
X	-11.3464
fatigued	-11.3464
▁Happy	-11.3464
▁Impressive	-11.3464
▁Newspaper	-11.3464
▁Patrolman	-11.3464
▁Plans	-11.3464
▁compadre	-11.3464
▁congratulations	-11.3464
▁consciousness	-11.3464
▁custody	-11.3464
▁demoted	-11.3464
▁description	-11.3464
▁drugged	-11.3464
▁inconsistency	-11.3464
▁ourselves	-11.3464
▁outburst	-11.3464
▁politician	-11.3464
▁reputation	-11.3464
▁rookie	-11.3464
▁scheduled	-11.3464
▁transcript	-11.3464
▁unanswered	-11.3464
xhibit	-11.3464
▁WHAT	-11.3464
▁banter	-11.3464
▁destroy	-11.3464
▁scoop	-11.3464
▁victory	-11.3464
▁SUV	-11.3464
▁Trunk	-11.3464
▁imprint	-11.3464
gasp	-11.3464
▁revise	-11.3464
▁splatter	-11.3464
▁Turn	-11.3464
▁expert	-11.3464
▁sprained	-11.3464
▁innocence	-11.3464
▁diligence	-11.3464
▁peace	-11.3464
Manuel	-11.3464
▁instructions	-11.3464
▁$50	-11.3464
▁level	-11.3464
▁Flower	-11.3464
▁company	-11.3464
▁gift	-11.3464
▁relevance	-11.3464
▁unrelated	-11.3464
▁forensics	-11.3464
▁homicide	-11.3464
▁blind	-11.3464
▁field	-11.3464
▁positive	-11.3464
▁production	-11.3465
▁suspend	-11.3465
▁absent	-11.3465
▁lunchlady	-11.3465
▁jail	-11.3465
▁ruling	-11.3465
▁Shards	-11.3465
▁freedom	-11.3465
▁local	-11.3465
▁permission	-11.3465
▁valve	-11.3465
▁303	-11.3465
▁neither	-11.3465
▁slide	-11.3465
▁relation	-11.3465
▁children	-11.3465
▁nearby	-11.3465
▁capture	-11.3465
▁imagination	-11.3465
▁Scary	-11.3465
▁homework	-11.3465
▁basis	-11.3465
▁burst	-11.3465
▁review	-11.3465
▁stood	-11.3465
▁ensure	-11.3465
▁presence	-11.3465
▁blurry	-11.3466
▁hungry	-11.3466
▁unlikely	-11.3466
▁desire	-11.3466
▁Regardless	-11.3466
▁apprehended	-11.3466
▁sleeve	-11.3466
▁mentor	-11.3466
▁Tank	-11.3466
▁fancy	-11.3467
LY	-11.3467
▁fifth	-11.3467
▁lonely	-11.3467
▁shack	-11.3467
▁Cindy	-11.3468
▁bitter	-11.3468
▁Touch	-11.3468
▁strap	-11.3468
everal	-11.3468
▁foul	-11.3468
▁exciting	-11.3468
▁embarrassing	-11.3468
▁doubtful	-11.3469
▁avoid	-11.3469
▁attached	-11.3471
▁tortur	-11.3471
▁climb	-11.3471
▁shake	-11.3471
▁section	-11.3471
▁game	-11.3471
▁electric	-11.3472
▁gourd	-11.3472
Rat	-11.3472
▁worst	-11.3472
▁ashamed	-11.3473
LD	-11.3473
▁threaten	-11.3473
▁terribly	-11.3473
▁fellow	-11.3473
▁cha	-11.3473
▁encountered	-11.3473
▁specifically	-11.3475
▁pillow	-11.3475
▁accuse	-11.3475
▁dude	-11.3476
▁reality	-11.3476
▁dance	-11.3477
▁Station	-11.3482
umber	-11.3483
▁settled	-11.3484
eacher	-11.3485
▁chain	-11.3488
▁UR	-11.3489
▁Killings	-11.349
▁techniques	-11.349
▁normally	-11.349
pleasure	-11.3491
▁dusty	-11.3491
▁trapped	-11.3493
ainting	-11.3493
▁mocked	-11.3493
▁Object	-11.3493
▁hung	-11.3495
▁falsified	-11.3497
▁guts	-11.3497
▁shower	-11.3498
▁unsolved	-11.3498
▁nature	-11.3498
retty	-11.35
▁Sofa	-11.35
▁suffered	-11.3502
▁manner	-11.3503
▁rent	-11.3504
▁New	-11.3505
▁Dead	-11.3505
▁overlooked	-11.3507
▁copy	-11.3509
▁Sur	-11.351
sob	-11.3511
▁grin	-11.3512
▁soul	-11.3514
▁arms	-11.3515
▁string	-11.3516
ascinating	-11.3522
▁flags	-11.3523
▁mic	-11.3524
▁lovers	-11.3527
▁strict	-11.3532
▁title	-11.3539
▁Urp	-11.3543
▁Bailiff	-11.3544
bo	-11.3544
▁visiting	-11.3545
▁Harry	-11.3545
▁crying	-11.355
▁Simple	-11.355
▁Camp	-11.3555
▁Luck	-11.3555
row	-11.3557
tter	-11.3561
▁rope	-11.3573
ph	-11.3575
▁efforts	-11.3575
▁strangely	-11.3576
▁practice	-11.3579
▁inch	-11.359
▁Oops	-11.3592
Weapon	-11.3593
▁imagined	-11.3593
▁Gu	-11.3595
▁watering	-11.3598
▁trip	-11.3603
▁ride	-11.3604
▁Stand	-11.3607
cked	-11.3613
▁mission	-11.3618
▁skipp	-11.362
▁props	-11.362
▁pressed	-11.3622
▁thous	-11.3629
▁Ack	-11.3634
▁pray	-11.364
Prints	-11.3654
▁materials	-11.3663
▁earthquakes	-11.3663
▁grand	-11.3671
aaa	-11.3672
lts	-11.3673
▁Dad	-11.3674
▁thus	-11.3685
tial	-11.3686
▁abso	-11.3688
▁Whaaaaa	-11.3702
▁examined	-11.3707
▁problemo	-11.3707
mission	-11.3714
▁waited	-11.3715
ual	-11.3737
▁9:4	-11.3738
...&#160;	-11.3739
rrrgh	-11.374
awn	-11.3754
▁inflate	-11.3764
▁1:	-11.3767
▁boot	-11.3799
aught	-11.3841
▁brew	-11.3855
▁round	-11.3857
▁hi	-11.386
▁float	-11.389
▁fir	-11.3896
▁pour	-11.3905
▁lone	-11.3934
▁ol	-11.3935
▁Grr	-11.3948
abbed	-11.397
▁bite	-11.3979
cious	-11.3985
▁accura	-11.3988
▁13	-11.3991
oooh	-11.3993
▁height	-11.3998
▁visitors	-11.401
ltra	-11.402
▁jokes	-11.4034
Then	-11.4036
▁wasted	-11.4038
▁rip	-11.4075
ought	-11.4077
shes	-11.409
▁Files	-11.4094
inally	-11.41
▁Woo	-11.4105
ine	-11.4106
ourtroom	-11.4141
▁song	-11.4174
▁influence	-11.4176
nger	-11.4192
▁Whoops	-11.4198
▁investigations	-11.42
any	-11.4204
ame	-11.4223
ttle	-11.426
▁5:15.	-11.4284
▁Young	-11.4298
mid	-11.43
angled	-11.4309
▁areas	-11.4367
▁pleased	-11.437
▁impressi	-11.4371
▁(...!	-11.4379
ention	-11.4404
shelves	-11.4405
At	-11.4463
▁bucks	-11.4478
!!!"	-11.4479
▁cap	-11.4507
btain	-11.4531
now	-11.4535
▁stir	-11.4535
ooo	-11.4553
▁seat	-11.4577
▁cow	-11.4579
ized	-11.4594
▁ill	-11.4596
▁services	-11.4611
▁blade	-11.4622
▁fo	-11.464
Gu	-11.4684
▁Hot	-11.4685
▁Fas	-11.4704
▁Mar	-11.472
▁cease	-11.4728
see	-11.4733
ave	-11.4741
▁stare	-11.4747
▁mu	-11.4757
▁pretend	-11.4765
aaaaaaaaaaaah	-11.4765
ugh	-11.4804
ctive	-11.4806
▁matche	-11.481
ick	-11.4817
hat	-11.4831
waaaaaaa	-11.4836
ench	-11.4869
▁criminals	-11.4905
▁Desp	-11.4937
▁fry	-11.4952
Judges	-11.4957
▁arra	-11.4966
▁shame	-11.4974
anging	-11.4988
der	-11.5016
v	-11.5072
▁CO	-11.5079
▁selecti	-11.5099
rap	-11.5114
Eve	-11.5116
▁rig	-11.5194
Marshall	-11.5221
▁sham	-11.5233
rapped	-11.5252
▁shin	-11.5297
HEM	-11.5297
▁Forg	-11.5314
Present	-11.532
▁accur	-11.5331
ctor	-11.5335
Z	-11.5346
▁capab	-11.5352
apped	-11.5358
▁stake	-11.5382
▁Da	-11.5389
▁bo	-11.5389
she	-11.5425
by	-11.5429
cause	-11.543
▁badges	-11.5431
ature	-11.5438
table	-11.5439
▁rush	-11.5442
▁tipp	-11.5455
▁bar	-11.5462
▁ju	-11.5462
take	-11.5468
▁Ta	-11.5489
Lotta	-11.549
▁sto	-11.5496
▁Acc	-11.55
defense	-11.551
deed	-11.5518
good	-11.5558
▁bal	-11.5567
ified	-11.5583
▁patrol	-11.5586
hah	-11.559
someone	-11.56
first	-11.5605
please	-11.5609
thought	-11.5611
▁Mi	-11.5612
rees	-11.5627
▁bang	-11.5628
Miss	-11.5628
ither	-11.564
▁driv	-11.5645
rrrrg	-11.5688
CO	-11.5699
aaaaaaaaaaaaaar	-11.57
Welcome	-11.57
Obviously	-11.5703
Gee	-11.5704
▁sc	-11.5705
▁Ve	-11.5706
▁Ki	-11.5721
digit	-11.5724
Does	-11.5724
Scientific	-11.5731
loud	-11.5732
First	-11.5736
glass	-11.5737
▁street	-11.5738
Have	-11.5743
▁novice	-11.5744
Somehow	-11.5744
Gatewater	-11.5746
normal	-11.5748
Wendy	-11.5749
Cough	-11.5749
sleep	-11.5749
bit	-11.5751
Nobody	-11.5752
▁generation	-11.5756
examining	-11.5756
*...	-11.5756
Too	-11.576
hello	-11.5763
draw	-11.5765
"...)	-11.577
By	-11.5773
▁monitor	-11.5778
▁accusation	-11.5779
▁judg	-11.5801
▁plea	-11.5803
▁slip	-11.5803
▁Red	-11.5805
tell	-11.5807
▁rumor	-11.5817
▁wood	-11.5817
▁trace	-11.582
mind	-11.5826
reading	-11.5851
seven	-11.5873
umm	-11.588
aid	-11.5884
▁Dog	-11.5904
▁troubl	-11.5912
stop	-11.5915
▁join	-11.5917
▁beside	-11.5922
ush	-11.5928
collection	-11.593
lmost	-11.5933
▁analyze	-11.5935
luster	-11.5935
▁bandage	-11.5938
▁daze	-11.5938
▁expose	-11.5939
aaaaaaaaaaaa	-11.5941
▁confuse	-11.5942
▁disappoint	-11.5947
▁convict	-11.5948
▁confirm	-11.5948
oever	-11.5949
eary	-11.595
▁prepar	-11.5954
▁convince	-11.5954
▁immediate	-11.5959
ifficult	-11.596
pecifically	-11.5962
cient	-11.5963
oogey	-11.5963
▁effect	-11.5964
%	-11.5964
IIIIIIIIII	-11.5964
smirk	-11.5964
▁Caviar	-11.5964
▁Chinese	-11.5964
▁Further	-11.5964
▁Instead	-11.5964
▁Intriguing	-11.5964
▁REAL	-11.5964
▁Relax	-11.5964
▁Suddenly	-11.5964
▁ability	-11.5964
▁acknowledge	-11.5964
▁adamant	-11.5964
▁advantage	-11.5964
▁animal	-11.5964
▁authority	-11.5964
▁behavior	-11.5964
▁caviar	-11.5964
▁compressor	-11.5964
▁conspirator	-11.5964
▁desperado	-11.5964
▁disposal	-11.5964
▁enemies	-11.5964
▁entertainment	-11.5964
▁enthusiasm	-11.5964
▁flavor	-11.5964
▁flawless	-11.5964
▁fraud	-11.5964
▁funeral	-11.5964
▁incomplete	-11.5964
▁insignificant	-11.5964
▁insinuating	-11.5964
▁jerk	-11.5964
▁merchant	-11.5964
▁mysteries	-11.5964
▁outrageous	-11.5964
▁pronounce	-11.5964
▁resolution	-11.5964
▁romantic	-11.5964
▁split	-11.5964
▁territory	-11.5964
▁understudy	-11.5964
▁vendor	-11.5964
▁ANY	-11.5964
▁collar	-11.5964
▁plunge	-11.5964
▁profit	-11.5964
▁romance	-11.5964
▁accomplish	-11.5964
▁knives	-11.5964
▁knowledge	-11.5964
▁narrow	-11.5964
▁relief	-11.5964
▁WHAAAA	-11.5964
▁Santa	-11.5964
▁charade	-11.5964
▁Introduction	-11.5964
▁negative	-11.5964
▁nonsense	-11.5964
▁picnick	-11.5964
▁summer	-11.5964
RR	-11.5964
▁Request	-11.5964
▁space	-11.5964
▁assault	-11.5964
▁dollars	-11.5964
▁guidemap	-11.5964
▁regret	-11.5964
▁deprivation	-11.5964
▁WERE	-11.5964
▁observation	-11.5964
▁Glove	-11.5964
▁convenient	-11.5964
▁stylish	-11.5964
▁Premium	-11.5964
▁outfit	-11.5964
▁represent	-11.5964
▁uniform	-11.5964
▁argue	-11.5964
▁source	-11.5964
▁egg	-11.5964
▁Redial	-11.5964
▁cheese	-11.5964
▁bargain	-11.5964
▁buzz	-11.5964
▁birthday	-11.5964
▁violent	-11.5964
▁angry	-11.5965
▁fabrication	-11.5965
▁snake	-11.5965
▁banner	-11.5965
▁insane	-11.5965
▁develop	-11.5965
▁prospector	-11.5965
▁division	-11.5965
▁obtain	-11.5965
▁lasso	-11.5965
▁damn	-11.5965
▁glaring	-11.5965
Woogey	-11.5965
▁nuts	-11.5965
▁Deposition	-11.5965
▁parents	-11.5965
▁Wallet	-11.5965
▁Fil	-11.5965
▁silver	-11.5965
▁contrary	-11.5965
▁women	-11.5965
▁appearance	-11.5965
▁utter	-11.5966
▁harsh	-11.5966
▁resolved	-11.5966
▁denied	-11.5966
whaaa	-11.5966
▁attempt	-11.5966
▁Clipping	-11.5966
arrior	-11.5966
▁pawn	-11.5966
▁Excellent	-11.5966
▁darkness	-11.5966
▁trash	-11.5967
▁established	-11.5967
▁mmmph	-11.5967
▁embarrassed	-11.5967
located	-11.5967
▁portray	-11.5968
▁prepare	-11.5968
▁relieved	-11.5968
▁awake	-11.5968
▁Through	-11.5968
▁cookie	-11.5969
estimated	-11.5969
▁beforehand	-11.597
▁discover	-11.597
▁Cute	-11.597
▁clueless	-11.5971
Thwap	-11.5971
▁Class	-11.5971
▁selected	-11.5971
▁mask	-11.5971
▁conclude	-11.5972
▁Paris	-11.5972
▁meaningless	-11.5972
rrest	-11.5972
Geez	-11.5972
▁spray	-11.5973
▁evildoer	-11.5973
▁cruel	-11.5974
▁blackout	-11.5975
▁sealed	-11.5975
▁sec	-11.5976
▁manipulated	-11.5976
▁counter	-11.5977
▁undeniable	-11.5977
▁sensitive	-11.5978
▁knight	-11.5978
happier	-11.598
▁confirmed	-11.598
▁shaking	-11.598
▁Boss	-11.5981
▁crushed	-11.5981
▁approved	-11.5981
▁gray	-11.5981
▁aluminum	-11.5982
▁Over	-11.5983
▁legally	-11.5983
▁deeper	-11.5983
▁hint	-11.5984
cha	-11.5984
position	-11.5984
▁Deal	-11.5985
▁fame	-11.5987
▁eyesight	-11.5987
▁unto	-11.5988
▁instance	-11.5989
▁creat	-11.5991
▁relaxed	-11.5991
▁smack	-11.5991
▁diving	-11.5992
▁approv	-11.5992
▁Chop	-11.5993
▁answers	-11.5994
▁incredible	-11.5994
▁comments	-11.5997
▁Stone	-11.5997
▁Duh	-11.5997
▁previous	-11.5999
elementary	-11.6001
refute	-11.6002
ay	-11.6002
▁Glad	-11.6003
▁deserved	-11.6003
▁pet	-11.6004
▁born	-11.6004
▁errands	-11.6004
▁throat	-11.6004
▁executed	-11.6005
▁cooperate	-11.6005
▁pants	-11.6005
tal	-11.6006
▁outage	-11.6006
▁solve	-11.6008
velop	-11.6008
Lady	-11.6009
▁Heard	-11.6012
▁schooler	-11.6012
▁chew	-11.6013
redial	-11.6014
▁styl	-11.6014
▁skin	-11.6015
▁shared	-11.602
▁Surely	-11.6022
▁disappointed	-11.6023
▁cracking	-11.6024
▁load	-11.6025
▁prosecute	-11.6026
▁wake	-11.6026
▁react	-11.6027
▁lands	-11.6028
▁pink	-11.6029
▁deadly	-11.603
amon	-11.603
▁Whoever	-11.6031
▁gathering	-11.6032
▁considered	-11.6034
appointed	-11.6036
icycle	-11.6038
▁8:	-11.6039
▁gap	-11.604
was	-11.6043
▁thorns	-11.6046
corn	-11.6049
▁minu	-11.605
▁correctly	-11.6053
▁documents	-11.6053
▁Eeee	-11.6054
umped	-11.6055
▁wide	-11.6056
▁cop	-11.6065
▁Heck	-11.6065
▁assuming	-11.6066
▁exchange	-11.6067
▁Yipes	-11.6068
▁command	-11.6068
▁Death	-11.6069
▁understood	-11.6071
▁memor	-11.6073
▁fooled	-11.6075
▁thrown	-11.6083
▁ammo	-11.6086
▁cents	-11.609
▁limits	-11.6097
▁refus	-11.6107
▁promised	-11.6108
▁beard	-11.6116
▁screaming	-11.612
▁unit	-11.612
▁Los	-11.6121
dz	-11.6132
▁Quiet	-11.6132
▁gee	-11.6134
▁dodged	-11.6137
▁rounds	-11.6149
▁faces	-11.6152
▁mmph	-11.6155
ize	-11.6159
▁besides	-11.6166
▁ST	-11.6167
▁admitt	-11.6169
▁wire	-11.6181
▁slim	-11.6195
▁Close	-11.6202
oth	-11.6203
▁Hoh	-11.6212
▁Rec	-11.6219
▁horses	-11.6222
▁rec	-11.6224
▁sport	-11.6226
▁dial	-11.6234
▁cent	-11.6238
▁showers	-11.624
▁stranger	-11.6249
mme	-11.6259
▁grind	-11.6265
▁answered	-11.6266
uck	-11.6274
everybody	-11.6277
ery	-11.6279
lthough	-11.628
pointed	-11.6282
▁fragments	-11.6283
▁footprints	-11.6284
pri	-11.6285
▁settle	-11.6296
▁basics	-11.6303
▁dated	-11.6311
izza	-11.6327
▁fits	-11.6338
▁ignor	-11.6341
▁rules	-11.6355
▁activ	-11.6357
ier	-11.6373
ced	-11.6377
▁recording	-11.6385
▁buil	-11.6388
▁sneeze	-11.6393
mpty	-11.6393
hessboard	-11.6394
▁backdrops	-11.6401
▁handles	-11.6409
aving	-11.6418
▁risks	-11.6419
An	-11.6434
:12	-11.6445
▁event	-11.6448
▁tricks	-11.6448
AW	-11.6449
ma	-11.6464
▁sing	-11.6466
ector	-11.6489
▁guests	-11.6495
ee	-11.6499
ward	-11.6499
▁Tea	-11.6501
use	-11.6501
ake	-11.6511
▁yell	-11.6522
▁bro	-11.653
▁stra	-11.6531
▁counts	-11.6536
enty	-11.6539
whe	-11.6545
▁flipp	-11.6548
▁mouths	-11.6563
▁bluffs	-11.6567
Ste	-11.6575
▁toys	-11.658
▁suspects	-11.6581
▁bones	-11.6588
abinet	-11.6607
then	-11.6608
read	-11.661
▁wander	-11.6623
▁rich	-11.6628
▁inter	-11.6632
▁8	-11.6661
Big	-11.6663
onestly	-11.6676
tapp	-11.6682
▁trad	-11.669
▁Pop	-11.6703
▁ga	-11.6704
ock	-11.6724
hall	-11.6726
lying	-11.6734
ab	-11.6738
▁darn	-11.6749
nput	-11.677
▁concerns	-11.6774
rip	-11.6782
▁proto	-11.6783
▁Ridiculo	-11.6788
▁cook	-11.6798
▁gang	-11.6801
ough	-11.6824
▁hinge	-11.6842
▁conclusions	-11.6853
▁directions	-11.6853
▁chat	-11.6878
nside	-11.689
▁cough	-11.6921
▁general	-11.6922
▁screams	-11.6922
▁......	-11.6952
▁casual	-11.6956
▁sw	-11.703
▁perk	-11.7049
li	-11.7054
unt	-11.7057
ical	-11.7059
▁doors	-11.708
rs	-11.7089
sistance	-11.7102
tion	-11.7108
ase	-11.7146
▁wan	-11.7153
▁prim	-11.7154
wr	-11.7175
j	-11.7178
▁Want	-11.7196
▁precise	-11.722
hood	-11.7221
▁Ju	-11.7227
▁shoes	-11.723
ions	-11.7243
▁physical	-11.7246
▁hm	-11.7254
▁"2	-11.7267
▁Hi	-11.7276
▁Aaa	-11.7285
sensed	-11.7297
▁cli	-11.7298
▁5842189	-11.731
LE	-11.7311
ber	-11.7323
pretending	-11.7332
▁Fool	-11.7333
:!	-11.7336
▁Whaaaaaaaaa	-11.7361
▁Sig	-11.7362
here	-11.7464
▁Dete	-11.747
wall	-11.748
ards	-11.7492
▁Bed	-11.7506
▁Err	-11.7518
▁breathe	-11.7523
Be	-11.7527
tender	-11.7556
▁coup	-11.7609
eval	-11.7622
▁shove	-11.7626
hold	-11.7635
▁mediums	-11.764
ort	-11.7649
ntification	-11.7667
▁lea	-11.7674
▁buck	-11.772
earing	-11.7755
lt	-11.7764
▁signs	-11.7779
▁prop	-11.7788
▁wow	-11.7795
im	-11.7801
▁reache	-11.7806
ster	-11.7813
nch	-11.7815
▁Clear	-11.7823
▁Care	-11.783
ifies	-11.7835
▁loses	-11.7843
▁Run	-11.7849
-"	-11.7872
eight	-11.7872
helves	-11.7881
ister	-11.789
bloodstained	-11.7894
▁40	-11.7895
▁tr	-11.7902
sion	-11.7909
▁Examin	-11.7925
As	-11.7979
▁serve	-11.7996
▁kn	-11.8018
ooooo	-11.802
ealing	-11.8023
yard	-11.8045
▁ri	-11.8096
▁nor	-11.8115
▁letters	-11.8124
vin	-11.814
▁senses	-11.8152
cor	-11.8184
▁Har	-11.8189
ife	-11.8207
▁'	-11.8219
▁rob	-11.8224
her	-11.8229
lent	-11.8236
▁Begin	-11.8248
Ba	-11.8263
pon	-11.8265
▁Po	-11.827
ul	-11.8272
had	-11.8274
▁Bot	-11.829
rding	-11.8295
▁soft	-11.8301
ND	-11.8311
▁accidental	-11.8312
▁member	-11.8373
▁Spr	-11.8395
Gant	-11.8407
▁leak	-11.8409
ter	-11.8422
▁chas	-11.8438
▁11:0	-11.8459
▁wi	-11.846
mer	-11.8499
▁Year	-11.8501
▁troubles	-11.8511
▁Up	-11.8512
tain	-11.8513
▁helps	-11.8524
attered	-11.8531
hear	-11.8545
aze	-11.8549
ches	-11.8592
ups	-11.8614
▁describ	-11.8647
board	-11.865
▁amuse	-11.8651
hing	-11.8663
▁gri	-11.8676
there	-11.8677
▁Count	-11.868
Oldbag	-11.8682
ren	-11.8683
pping	-11.8692
only	-11.8707
70	-11.8711
▁Black	-11.8723
before	-11.8734
ung	-11.8742
▁Star	-11.8745
ran	-11.8746
▁arrange	-11.8747
co	-11.8785
Take	-11.8787
▁11:	-11.8789
believe	-11.8791
Powers	-11.8796
▁ignore	-11.8796
pped	-11.8807
cuff	-11.8807
Co	-11.8819
ning	-11.8822
▁gar	-11.8824
objection	-11.8832
detective	-11.8862
▁jobs	-11.8868
professional	-11.8868
Will	-11.889
▁ti	-11.8893
▁rack	-11.8896
Record	-11.892
ladder	-11.8921
uff	-11.8923
Makin	-11.8933
Witness	-11.8934
help	-11.8938
made	-11.8941
murderer	-11.8945
truth	-11.895
incident	-11.8958
▁fri	-11.8963
▁ba	-11.8977
▁begins	-11.8979
▁pop	-11.898
However	-11.8982
5	-11.8984
iz	-11.899
▁pry	-11.8992
broken	-11.8995
oil	-11.9001
still	-11.9001
Photo	-11.9002
▁exp	-11.9006
Cross	-11.9007
big	-11.9008
Anyway	-11.9019
correct	-11.902
couldn	-11.9022
Could	-11.903
Um	-11.903
Perhaps	-11.9031
which	-11.9035
Nothing	-11.9041
Because	-11.9048
mmph	-11.9054
accident	-11.9054
▁Power	-11.9055
Bluecorp	-11.9057
Jake	-11.906
scientific	-11.9061
training	-11.9066
▁official	-11.9066
Find	-11.9067
Quiet	-11.9068
white	-11.9069
message	-11.9069
▁dogie	-11.9069
Turnabout	-11.9069
Which	-11.9069
▁character	-11.907
transferal	-11.9071
patrolman	-11.9071
forgery	-11.9072
Stop	-11.9073
dirt	-11.9073
Everything	-11.9074
Congratulations	-11.9074
Oops	-11.9074
hi	-11.9075
dodged	-11.9076
view	-11.9076
Charley	-11.9076
Evil	-11.9076
Left	-11.9077
Give	-11.9078
Fine	-11.9079
▁Ev	-11.9081
school	-11.9082
stairs	-11.9082
Nice	-11.9084
bloody	-11.9085
▁pack	-11.9087
▁amateur	-11.9089
Dad	-11.909
Yet	-11.9093
Er	-11.9093
hmm	-11.9096
Should	-11.9101
▁effort	-11.9102
ol	-11.9102
Got	-11.9105
year	-11.9107
▁led	-11.9108
lucky	-11.9112
▁Car	-11.9123
bad	-11.9135
Sal	-11.914
ranch	-11.9145
▁tack	-11.9149
Dee	-11.9157
aaah	-11.9198
See	-11.9206
▁ought	-11.9211
▁col	-11.9216
▁na	-11.9216
low	-11.9219
Man	-11.9224
▁appro	-11.9235
▁simpl	-11.9249
unch	-11.925
▁complain	-11.9252
armed	-11.9252
▁tear	-11.9252
▁Grrr	-11.9259
His	-11.9262
cene	-11.9263
▁grasp	-11.9267
▁typ	-11.9268
▁incredibl	-11.9268
▁challenge	-11.9269
▁surface	-11.9269
▁puzzl	-11.9269
tified	-11.927
▁solv	-11.9273
▁rescue	-11.9274
▁div	-11.9277
work	-11.928
NG	-11.928
▁manipulat	-11.928
▁connect	-11.9281
▁encounter	-11.9281
erribly	-11.9282
▁creep	-11.9282
▁adjourn	-11.9282
Heh	-11.9286
urring	-11.9286
▁Di	-11.9287
▁chill	-11.9288
▁ruin	-11.9291
▁apparent	-11.9293
▁crush	-11.9295
▁famili	-11.9297
▁birth	-11.9297
ctured	-11.9297
▁fruit	-11.9297
beautacious	-11.9297
halberd	-11.9297
xquisite	-11.9297
▁Different	-11.9297
▁Earlier	-11.9297
▁Europe	-11.9297
▁Fujiyama	-11.9297
▁Nichols	-11.9297
▁Rumors	-11.9297
▁Television	-11.9297
▁ammunition	-11.9297
▁analysis	-11.9297
▁atmosphere	-11.9297
▁bathroom	-11.9297
▁calculating	-11.9297
▁ceiling	-11.9297
▁compliment	-11.9297
▁composure	-11.9297
▁female	-11.9297
▁garbage	-11.9297
▁guarantee	-11.9297
▁hombre	-11.9297
▁hundred	-11.9297
▁inevitabl	-11.9297
▁intrigue	-11.9297
▁invoked	-11.9297
▁journey	-11.9297
▁luxur	-11.9297
▁metaphor	-11.9297
▁network	-11.9297
▁perfectionist	-11.9297
▁physique	-11.9297
▁possibilities	-11.9297
▁premeditation	-11.9297
▁remorse	-11.9297
▁smiling	-11.9297
▁society	-11.9297
▁southern	-11.9297
▁squirm	-11.9297
▁straightforward	-11.9297
▁strength	-11.9297
▁subscriptions	-11.9297
▁superior	-11.9297
▁telescope	-11.9297
▁wrangler	-11.9297
▁mechanism	-11.9297
▁phrase	-11.9297
▁plywood	-11.9297
▁rubbish	-11.9297
unique	-11.9297
▁Muffler	-11.9297
▁OUT	-11.9297
▁Sharp	-11.9297
▁absence	-11.9297
▁audience	-11.9297
▁foggy	-11.9297
▁pavement	-11.9297
▁sequences	-11.9297
▁value	-11.9297
▁Bwah	-11.9297
▁Immediately	-11.9297
▁President	-11.9297
▁damage	-11.9297
▁trauma	-11.9297
▁confusing	-11.9297
▁cowdog	-11.9297
▁forfeit	-11.9297
▁gleam	-11.9297
▁repair	-11.9297
▁thorough	-11.9297
bedlam	-11.9297
▁Otherwise	-11.9297
▁dramatic	-11.9297
▁partnership	-11.9297
▁rival	-11.9297
▁spork	-11.9297
▁teeth	-11.9297
▁Discover	-11.9297
▁target	-11.9297
powered	-11.9298
▁flesh	-11.9298
▁fortune	-11.9298
▁nasty	-11.9298
▁recip	-11.9298
▁Amazing	-11.9298
▁Consider	-11.9298
▁cooperating	-11.9298
▁subject	-11.9298
▁wrath	-11.9298
▁version	-11.9298
▁$38.00	-11.9298
▁Silence	-11.9298
▁Fabrication	-11.9298
▁tongue	-11.9298
▁wolf	-11.9298
▁idiot	-11.9298
▁Farewell	-11.9298
▁chemical	-11.9298
▁comfort	-11.9298
▁girlfriend	-11.9298
▁naughty	-11.9298
▁contra	-11.9298
▁cowboy	-11.9298
▁ludicrous	-11.9298
▁unnecessary	-11.9298
▁Half	-11.9298
▁recovered	-11.9298
▁shift	-11.9298
vocab	-11.9298
▁Popper	-11.9298
▁12:00	-11.9298
▁Sheesh	-11.9298
▁effective	-11.9298
▁uncovered	-11.9298
▁unknown	-11.9298
▁Trash	-11.9298
baked	-11.9298
▁Lunchbox	-11.9298
▁amusement	-11.9298
▁Accept	-11.9298
▁glance	-11.9298
▁uncertain	-11.9298
34	-11.9298
▁headphones	-11.9298
▁Self	-11.9298
▁Humph	-11.9298
▁Summer	-11.9298
▁daydreaming	-11.9298
▁conviction	-11.9298
accompanied	-11.9298
▁incinerator	-11.9298
▁process	-11.9298
▁Whooooooooooooo	-11.9298
▁petty	-11.9298
▁benches	-11.9298
▁Ironic	-11.9298
▁chick	-11.9298
▁wield	-11.9298
▁Understand	-11.9298
▁elite	-11.9299
▁paperwork	-11.9299
▁polite	-11.9299
▁mirror	-11.9299
▁cheek	-11.9299
▁loaf	-11.9299
▁Perfectly	-11.9299
▁representation	-11.9299
▁joking	-11.9299
▁cacti	-11.9299
▁begun	-11.9299
▁cancel	-11.9299
▁selfish	-11.9299
▁treatment	-11.9299
▁delete	-11.9299
▁talent	-11.93
▁actuality	-11.93
▁gender	-11.93
▁inspection	-11.93
▁YOUR	-11.93
dazzling	-11.93
▁Remind	-11.93
▁Key	-11.93
▁summary	-11.9301
▁hills	-11.9301
▁honey	-11.9301
▁confession	-11.9301
TF	-11.9301
▁sauce	-11.9301
▁brave	-11.9301
▁celebrating	-11.9301
▁17	-11.9301
▁content	-11.9301
▁weekend	-11.9301
▁choke	-11.9301
▁buggin	-11.9302
▁punished	-11.9302
savage	-11.9302
▁scum	-11.9302
▁Psst	-11.9302
▁loop	-11.9302
▁deduction	-11.9303
drool	-11.9303
▁couch	-11.9303
▁Deli	-11.9303
▁wax	-11.9303
▁Surprised	-11.9303
▁plating	-11.9303
▁halfway	-11.9303
booming	-11.9303
▁surreal	-11.9304
introduction	-11.9304
▁inconceivable	-11.9304
▁minor	-11.9305
▁whispering	-11.9305
▁Questioning	-11.9305
▁businessman	-11.9305
▁previously	-11.9305
▁perus	-11.9306
▁outline	-11.9306
▁Myself	-11.9306
▁wrongdoing	-11.9306
▁closing	-11.9308
life	-11.9308
▁surrounded	-11.9308
uous	-11.9308
▁inconsistent	-11.9309
▁limping	-11.931
▁100	-11.931
▁spring	-11.931
iscarded	-11.9311
▁Exit	-11.9312
▁electro	-11.9313
▁sympathiz	-11.9313
ertaining	-11.9313
▁cried	-11.9314
▁hopeless	-11.9314
▁boil	-11.9314
▁marker	-11.9315
▁boring	-11.9317
insurance	-11.9318
▁Soda	-11.9318
▁careless	-11.9318
▁Award	-11.9318
▁Pol	-11.9319
CH	-11.9319
▁bushes	-11.9319
BA	-11.932
▁rocket	-11.932
imately	-11.932
lated	-11.932
Odd	-11.9321
▁speed	-11.9322
▁grim	-11.9322
▁attach	-11.9323
▁packed	-11.9323
itated	-11.9323
▁compell	-11.9323
▁Uwaaa	-11.9325
ickly	-11.9326
▁stone	-11.9327
▁house	-11.9328
▁fainted	-11.9329
▁abandoned	-11.9329
▁yelling	-11.933
▁credi	-11.933
▁stronger	-11.9332
eehaw	-11.9332
▁rash	-11.9334
▁loan	-11.9335
▁bandaged	-11.9335
▁train	-11.9335
▁freaks	-11.9338
▁teacher	-11.9338
▁Defend	-11.9339
▁honestly	-11.934
ancing	-11.9342
▁sick	-11.9343
▁qualifies	-11.9345
▁outcome	-11.9345
▁presentation	-11.9345
▁mite	-11.9346
elega	-11.9348
▁Va	-11.935
▁Around	-11.9351
▁original	-11.9351
▁hush	-11.9351
▁gal	-11.9353
▁Boys	-11.9353
▁drama	-11.9354
▁double	-11.9354
▁Easy	-11.9355
▁flimsy	-11.9355
▁insulator	-11.9355
▁Hurry	-11.9356
▁bonus	-11.9356
▁Gumtree	-11.9356
▁confidence	-11.9356
▁puppet	-11.9356
▁hidden	-11.9356
impaction	-11.9357
▁Innocent	-11.9357
▁jum	-11.9357
▁concise	-11.9357
▁spaghetti	-11.9358
▁steam	-11.9358
▁snooping	-11.9359
▁setting	-11.9359
▁trait	-11.936
▁feared	-11.9361
▁participat	-11.9362
▁Ph	-11.9363
▁deducti	-11.9364
▁released	-11.9365
rgh	-11.9367
▁highest	-11.9369
▁bold	-11.937
OOOOO	-11.937
▁esc	-11.9372
▁phones	-11.9374
▁$	-11.9374
▁reverse	-11.9375
▁grant	-11.9376
▁sentenced	-11.9376
▁eaten	-11.9377
▁nicely	-11.9378
bine	-11.938
▁stunt	-11.938
▁bank	-11.9383
mumble	-11.9384
TE	-11.9386
ically	-11.9387
▁BE	-11.9387
▁upside	-11.9387
▁defeated	-11.9399
▁Pay	-11.9401
BAD	-11.9403
xpensive	-11.9405
▁firm	-11.9405
▁Fa	-11.9405
▁raw	-11.9407
▁mor	-11.9409
▁belonging	-11.9409
▁mom	-11.941
▁Lies	-11.941
▁mental	-11.9415
▁losers	-11.9416
▁goals	-11.9419
▁swing	-11.9423
▁neighbors	-11.9427
▁screws	-11.9429
▁joint	-11.9433
▁fa	-11.9436
mple	-11.9439
▁industry	-11.9447
▁yoofoh	-11.9447
▁par	-11.9447
▁Certainly	-11.9448
▁Him	-11.9448
▁pi	-11.9453
wered	-11.9455
▁crash	-11.946
torn	-11.946
▁spit	-11.9463
▁clearer	-11.9465
umble	-11.947
Re	-11.9471
▁notic	-11.9471
▁maintain	-11.9472
▁plain	-11.9475
▁Word	-11.9479
▁clouds	-11.948
▁blamed	-11.9481
focused	-11.9482
▁gall	-11.9487
▁rung	-11.9488
▁ske	-11.9489
▁Yank	-11.9495
ished	-11.9497
▁investigated	-11.9505
ption	-11.951
▁amateurs	-11.9511
▁Yay	-11.9515
▁lo	-11.9516
reflection	-11.9521
real	-11.9522
unk	-11.9524
ntal	-11.9525
▁agreed	-11.9525
▁intent	-11.953
▁Ness	-11.9537
duct	-11.9539
worthy	-11.954
▁buying	-11.9544
▁seni	-11.9545
▁penalized	-11.9548
▁detain	-11.9549
▁defender	-11.9551
used	-11.9558
honed	-11.9563
▁dry	-11.9564
ught	-11.9568
mb	-11.9571
mph	-11.9583
▁generations	-11.9594
carier	-11.9602
cant	-11.9604
▁tur	-11.9605
tepladder	-11.9607
found	-11.9608
▁fly	-11.9622
arre	-11.9624
▁Scientific	-11.9627
▁celebrate	-11.963
lf	-11.9635
▁Aw	-11.9643
dger	-11.9644
tch	-11.9647
▁fut	-11.965
▁Point	-11.9651
▁Inc	-11.9656
top	-11.9657
▁mistak	-11.9658
▁sum	-11.9659
▁revealing	-11.9671
▁reg	-11.9688
▁uhh	-11.969
ozen	-11.9694
▁thi	-11.9704
▁9:0	-11.9708
▁travel	-11.972
▁cups	-11.9721
▁ski	-11.9727
▁ver	-11.973
wards	-11.9733
▁Gee	-11.9745
▁reporter	-11.9748
ities	-11.9758
Say	-11.9759
sneaking	-11.9773
▁God	-11.979
▁nail	-11.9796
▁shout	-11.9796
▁hurting	-11.9799
oney	-11.9801
unfortunately	-11.9813
▁spill	-11.9816
itting	-11.9825
mo	-11.983
▁fingerprinting	-11.9831
▁wrest	-11.9835
▁Acco	-11.9836
▁partners	-11.9841
▁cas	-11.9843
imp	-11.985
▁goof	-11.9856
▁respects	-11.9856
▁forest	-11.9858
▁che	-11.9872
ple	-11.9875
▁hoped	-11.9876
▁Wall	-11.9887
▁Return	-11.9887
▁stores	-11.9887
glare	-11.9891
rove	-11.9898
▁curious	-11.9903
lackout	-11.9905
▁costs	-11.9914
iming	-11.992
▁mountains	-11.9929
▁becom	-11.9934
▁duo	-11.9943
▁mix	-11.9949
▁road	-11.9955
ger	-11.9961
col	-11.9973
▁skill	-11.9977
-6!	-11.9989
lly	-11.9994
▁worm	-11.9995
▁Dra	-11.9997
▁5:00!	-12.0014
bribed	-12.0026
Dear	-12.0038
▁sheet	-12.0053
▁Det	-12.0054
▁marks	-12.0084
Trusting	-12.0112
aaaaah	-12.0122
▁fears	-12.0142
▁skim	-12.0142
ool	-12.0145
oon	-12.0148
can	-12.0172
▁(...!)	-12.0182
▁5:15...	-12.0188
▁earn	-12.0196
ja	-12.0199
▁rate	-12.0208
endar	-12.0213
omputer	-12.0217
▁kno	-12.0233
ax	-12.0237
▁Call	-12.0264
ality	-12.0284
ving	-12.0285
leopa	-12.03
tta	-12.031
▁cam	-12.0312
▁verifi	-12.0319
isn	-12.0331
▁reporting	-12.0333
says	-12.0334
▁fals	-12.0342
▁Feel	-12.0349
▁aid	-12.0357
done	-12.0368
Me	-12.0375
grum	-12.0378
uation	-12.0382
▁reli	-12.041
sure	-12.0414
24	-12.0418
▁grounds	-12.0426
evensevenseven	-12.0431
▁Pa	-12.0443
▁cares	-12.0443
▁fires	-12.0456
▁2:15...	-12.0462
▁shoulders	-12.0465
▁bury	-12.0469
▁war	-12.0481
UN	-12.0498
▁systems	-12.0509
▁Thought	-12.0513
EM	-12.0514
ope	-12.0517
aaaaaaaaaaaaaaaa	-12.0525
iden	-12.0527
"!!!	-12.0528
▁refuses	-12.0545
▁overlook	-12.055
▁wits	-12.0557
sevenseven	-12.0562
▁Cooperati	-12.0569
dish	-12.057
▁Boats	-12.0573
▁guns	-12.0576
▁Aha	-12.058
▁problems	-12.0627
icked	-12.0649
ard	-12.0662
▁pile	-12.067
▁buttons	-12.0671
▁boyfriends	-12.0675
▁hrr	-12.0697
▁inspir	-12.0703
▁har	-12.0727
spect	-12.0732
▁voices	-12.0753
▁Com	-12.0754
▁excuses	-12.0755
fuse	-12.0759
yer	-12.0763
pre	-12.0798
ure	-12.0842
▁dev	-12.0848
▁tang	-12.0849
▁tri	-12.0854
▁barr	-12.0855
new	-12.0858
▁Darn	-12.0873
▁Hav	-12.0893
▁killings	-12.0914
dator	-12.0917
▁waters	-12.0926
▁cor	-12.0943
▁pals	-12.0945
▁purp	-12.0951
owl	-12.0969
▁pu	-12.0984
▁drawers	-12.1002
members	-12.1003
▁intens	-12.1022
rinkle	-12.1037
▁discre	-12.104
idden	-12.1053
dur	-12.1062
emporar	-12.1071
eflect	-12.1078
▁sigh	-12.1088
nlight	-12.1108
ms	-12.1112
▁clut	-12.1121
nk	-12.1133
▁alike	-12.1138
▁preci	-12.1142
▁mist	-12.1161
react	-12.1166
tting	-12.1187
DS	-12.1188
either	-12.1194
▁dr	-12.1201
ative	-12.1255
verybody	-12.1279
Wild	-12.1292
ath	-12.13
rained	-12.13
otta	-12.1314
wed	-12.1316
aaaaaaaaaaaaaa	-12.1323
▁monsters	-12.1325
ding	-12.1331
▁practic	-12.1335
▁slipp	-12.1342
▁gon	-12.1348
▁cou	-12.1349
▁Fre	-12.1352
reign	-12.1362
La	-12.1372
▁babbl	-12.1374
ot	-12.1397
.&#160;	-12.1397
▁posters	-12.1401
ible	-12.1416
erman	-12.1417
▁grab	-12.142
iving	-12.1422
▁stun	-12.1427
ticipate	-12.1427
▁Whi	-12.1443
▁9:	-12.1464
▁aw	-12.1483
▁jo	-12.151
rry	-12.1525
om	-12.1528
AB	-12.1549
▁belt	-12.1553
bal	-12.1553
27	-12.1556
HHHH	-12.1585
vel	-12.1605
▁patien	-12.1615
▁5842189...	-12.1619
endous	-12.1624
▁thre	-12.1642
lipping	-12.1664
▁Ski	-12.1668
po	-12.1676
▁bed	-12.1678
ystery	-12.168
Speak	-12.1681
▁imp	-12.1691
▁len	-12.1714
▁spirits	-12.1724
▁conceivabl	-12.1729
ighting	-12.1747
▁hop	-12.1767
ade	-12.1772
ear	-12.1797
ered	-12.18
▁qual	-12.1817
▁spots	-12.1821
ned	-12.1869
▁fe	-12.1901
...]	-12.1908
▁Whaaaaaaa	-12.1921
▁punche	-12.1945
bed	-12.1985
▁flo	-12.1997
▁caus	-12.201
ifying	-12.2016
▁include	-12.2058
hell	-12.2082
▁tangle	-12.2101
▁sav	-12.2114
nding	-12.2116
▁Si	-12.2132
▁AAAAAAAHHH	-12.2138
▁11	-12.2146
quid	-12.2163
▁dates	-12.218
Saw	-12.2206
shed	-12.2206
▁motiv	-12.2212
inking	-12.2235
oo	-12.2256
▁sun	-12.227
Judge	-12.228
▁Hear	-12.2303
16	-12.2304
▁hurts	-12.2308
15	-12.2313
ump	-12.2315
"...!	-12.2373
ease	-12.2379
pt	-12.2383
▁.........	-12.2416
solved	-12.2431
rating	-12.2444
Un	-12.2476
▁escap	-12.2478
▁cond	-12.2491
tumble	-12.2495
Bes	-12.2496
nto	-12.2504
▁pai	-12.2527
canned	-12.2539
orward	-12.2542
ane	-12.2576
De	-12.2579
deals	-12.2618
▁Hmmm	-12.2629
▁pie	-12.264
his	-12.2654
▁wit	-12.2679
ext	-12.2737
▁Che	-12.2739
driver	-12.2743
ating	-12.2757
sed	-12.2765
-6.	-12.2771
plendid	-12.2783
▁charg	-12.2812
ang	-12.2824
▁cons	-12.2829
ra	-12.2854
▁vi	-12.2866
▁Sa	-12.2877
▁resist	-12.2882
▁select	-12.2883
▁admi	-12.2884
max	-12.2885
rom	-12.2895
▁rely	-12.2901
▁non	-12.2922
lay	-12.2925
yo	-12.295
▁barre	-12.2956
▁Admit	-12.2973
▁hat	-12.2983
arden	-12.2989
phone	-12.299
▁fu	-12.2996
ammed	-12.301
ga	-12.3047
hhh	-12.3049
ith	-12.3053
case	-12.307
would	-12.3072
lied	-12.3092
la	-12.3126
gan	-12.3131
▁Trust	-12.3136
come	-12.3141
per	-12.3158
▁fac	-12.316
▁ag	-12.3169
▁fl	-12.317
▁pickle	-12.3173
▁clu	-12.3177
▁bribe	-12.3212
▁hobb	-12.3212
back	-12.3245
ray	-12.3245
▁fil	-12.3257
shaped	-12.3264
▁pat	-12.3265
urely	-12.329
▁di	-12.3301
car	-12.3312
hack	-12.3314
▁inv	-12.333
more	-12.3333
▁comp	-12.3338
ony	-12.3343
Hi	-12.3349
ostume	-12.3363
▁und	-12.3369
night	-12.337
▁sisters	-12.3379
AS	-12.3387
post	-12.3389
rank	-12.339
about	-12.3415
...!"	-12.3422
LL	-12.3424
bye	-12.3469
▁Meaning	-12.3472
ig	-12.3487
rk	-12.3505
aw	-12.3507
Goodman	-12.3509
arious	-12.3512
▁pot	-12.3518
tray	-12.3518
course	-12.3599
▁tapes	-12.3607
▁bon	-12.3608
oooo	-12.3618
qu	-12.3624
iled	-12.3643
pin	-12.3644
find	-12.367
▁fro	-12.3676
▁dist	-12.368
▁cle	-12.3683
Had	-12.3705
most	-12.3706
42	-12.3715
▁relat	-12.3719
Cou	-12.3722
person	-12.3732
▁travelin	-12.3741
kind	-12.3758
mp	-12.3759
ears	-12.376
passing	-12.378
▁para	-12.379
clock	-12.3805
last	-12.3812
reason	-12.3816
keep	-12.3817
down	-12.3825
ole	-12.3842
eeping	-12.3846
because	-12.385
away	-12.3864
▁Dis	-12.3866
Dec	-12.387
knew	-12.3872
ogan	-12.3878
▁Bu	-12.3882
peel	-12.3885
fingerprint	-12.389
Can	-12.3895
▁bri	-12.3898
information	-12.39
door	-12.3902
chance	-12.3908
moment	-12.3922
girl	-12.3929
next	-12.393
actually	-12.3933
#	-12.3934
▁"...	-12.394
Make	-12.394
Yogi	-12.395
anyway	-12.3953
▁heads	-12.3958
▁wr	-12.3969
ailed	-12.3971
request	-12.3987
▁theme	-12.3988
ement	-12.3997
Still	-12.3999
Would	-12.4001
two	-12.4002
Robert	-12.401
Like	-12.4011
Neil	-12.4012
water	-12.4013
running	-12.4013
possibility	-12.4015
September	-12.4019
minute	-12.402
cover	-12.4021
aked	-12.4024
letter	-12.4027
With	-12.4028
Everyone	-12.403
follow	-12.4035
blackmail	-12.4035
suspicious	-12.4035
Never	-12.4035
challenged	-12.4035
finished	-12.4037
motive	-12.4037
box	-12.4039
five	-12.404
class	-12.4044
attack	-12.4051
investigate	-12.4053
coincidence	-12.4055
Letter	-12.4055
Back	-12.4056
Certainly	-12.4056
understood	-12.4057
Strange	-12.4058
ulations	-12.4058
yoofoh	-12.4058
industry	-12.4059
▁affair	-12.406
conclusive	-12.4061
erased	-12.4062
stabbing	-12.4063
disappeared	-12.4063
25	-12.4064
Tomorrow	-12.4065
pasta	-12.4065
Death	-12.4066
command	-12.4066
Safe	-12.4066
Funny	-12.4066
▁skip	-12.4067
Yipes	-12.4067
Nah	-12.4067
ud	-12.4068
Finally	-12.4068
exchange	-12.4068
child	-12.4068
Harry	-12.4069
scarf	-12.4069
People	-12.4069
nightmare	-12.4069
Bailiff	-12.407
▁5:3	-12.407
▁customer	-12.407
Simple	-12.407
Kiyance	-12.407
Although	-12.407
premeditated	-12.407
Little	-12.4071
shadow	-12.4071
accomplice	-12.4071
▁remark	-12.4071
Frank	-12.4072
Scientifically	-12.4072
blank	-12.4073
Urp	-12.4074
WP	-12.4076
road	-12.4077
▁elder	-12.4077
decisive	-12.4082
evil	-12.4082
Thus	-12.4084
Edgey	-12.4084
peaking	-12.4087
title	-12.4088
AAAA	-12.4089
▁neighbor	-12.4089
▁limit	-12.409
spirit	-12.4091
step	-12.4091
▁screw	-12.4093
Ack	-12.4093
fire	-12.4094
▁document	-12.4097
outside	-12.41
dancing	-12.41
▁cloud	-12.4103
Might	-12.4105
▁corroborat	-12.4106
grand	-12.4106
dead	-12.4106
▁method	-12.4108
total	-12.4109
Whose	-12.411
▁snack	-12.4111
▁Base	-12.4118
▁scan	-12.412
front	-12.4122
Whoa	-12.4125
handed	-12.4126
Or	-12.4131
Bring	-12.4132
▁brain	-12.4135
zed	-12.4135
cycle	-12.4137
dog	-12.4139
▁thorn	-12.4143
ervice	-12.4145
pprehend	-12.415
Pol	-12.4153
rty	-12.4157
ortunately	-12.416
move	-12.4162
inating	-12.4167
▁Person	-12.417
▁?	-12.4176
OOOO	-12.4178
ral	-12.4182
▁deduc	-12.4183
▁nigh	-12.4184
▁...!!!	-12.4186
grave	-12.4186
AN	-12.4188
investigati	-12.4189
bu	-12.4191
defeated	-12.4191
-9"	-12.4192
▁lip	-12.4202
▁#2	-12.4205
▁crim	-12.421
▁continu	-12.4217
lementary	-12.4217
▁exten	-12.4219
▁formal	-12.4221
▁Leav	-12.4223
▁lover	-12.4223
▁liked	-12.4224
wai	-12.4224
▁presid	-12.4225
ecretary	-12.4226
ealous	-12.4232
▁rais	-12.4234
▁pill	-12.4237
umb	-12.4238
Yo	-12.4246
pay	-12.425
stains	-12.4253
▁arrang	-12.4253
▁convinc	-12.4253
▁arriv	-12.4256
uine	-12.4259
some	-12.4259
▁reminisc	-12.426
▁land	-12.4261
▁Forgot	-12.4265
▁undeniabl	-12.4268
▁surmise	-12.4269
▁sensitiv	-12.4269
▁Nin	-12.4272
▁bill	-12.4272
▁smok	-12.4274
lend	-12.4278
nap	-12.428
▁twist	-12.428
▁perform	-12.4281
▁suffer	-12.4281
▁surround	-12.4282
▁attract	-12.4283
▁fabric	-12.4283
▁necessar	-12.4285
▁troph	-12.4285
▁introduc	-12.4286
smetics	-12.4292
Are	-12.4292
nformation	-12.4292
horns	-12.4293
▁Actual	-12.4293
llegal	-12.4293
▁unlock	-12.4293
remeditated	-12.4294
onitors	-12.4295
AAAHHHH	-12.4295
▁progr	-12.4295
▁supp	-12.4295
gu	-12.4295
roducer	-12.4296
2/2	-12.4296
▁build	-12.4296
imme	-12.4296
▁recent	-12.4296
▁rehears	-12.4296
estiny	-12.4297
▁innoc	-12.4297
▁apolog	-12.4297
relevanc	-12.4297
▁viol	-12.4297
▁Fabricat	-12.4297
▁threat	-12.4297
▁$5	-12.4297
itude	-12.4297
Snipperwhapper	-12.4297
Spiky	-12.4297
▁WWWHH	-12.4297
▁civili	-12.4297
▁persuasi	-12.4297
4989596.	-12.4297
Contradiction	-12.4297
magnetism	-12.4297
▁Grodyburger	-12.4297
▁ORDEEEEERRRR	-12.4297
▁hypothe	-12.4297
▁multipl	-12.4297
▁peanut	-12.4297
▁perplex	-12.4297
▁sarcas	-12.4297
▁scheme	-12.4297
▁survivors	-12.4297
▁unmistakabl	-12.4297
1-307	-12.4297
Liar	-12.4297
OOOOOOOOOOOOOOOO	-12.4297
ROFS	-12.4297
SECURITY	-12.4297
Transferal	-12.4297
acrific	-12.4297
disregarded	-12.4297
hoplifting	-12.4297
mbrasser	-12.4297
organized	-12.4297
photogenic	-12.4297
ramatique	-12.4297
rilobite	-12.4297
▁00:15	-12.4297
▁2:45.	-12.4297
▁Agreed	-12.4297
▁Amateur	-12.4297
▁Burgers	-12.4297
▁Compressor	-12.4297
▁Congrats	-12.4297
▁Disposable	-12.4297
▁English	-12.4297
▁Friends	-12.4297
▁Fuji	-12.4297
▁Passport	-12.4297
▁Slap	-12.4297
▁Suedeshoes	-12.4297
▁Telephone	-12.4297
▁bogus	-12.4297
▁cahoots	-12.4297
▁cautious	-12.4297
▁cervesa	-12.4297
▁chocolate	-12.4297
▁clarify	-12.4297
▁cobra	-12.4297
▁communication	-12.4297
▁competent	-12.4297
▁condolences	-12.4297
▁confusion	-12.4297
▁definitive	-12.4297
▁demeanor	-12.4297
▁depressed	-12.4297
▁disagree	-12.4297
▁disgrace	-12.4297
▁embezzl	-12.4297
▁greenhorn	-12.4297
▁implication	-12.4297
▁kindergarten	-12.4297
▁literally	-12.4297
▁maneuver	-12.4297
▁marbles	-12.4297
▁microphone	-12.4297
▁mobile	-12.4297
▁noodles	-12.4297
▁nosebleed	-12.4297
▁optimistic	-12.4297
▁overwhelmed	-12.4297
▁pamphlet	-12.4297
▁paparazzi	-12.4297
▁peculiar	-12.4297
▁pencil	-12.4297
▁perceptive	-12.4297
▁persuade	-12.4297
▁prairie	-12.4297
▁prevails	-12.4297
▁principle	-12.4297
▁probability	-12.4297
▁provolone	-12.4297
▁rambling	-12.4297
▁reception	-12.4297
▁resemblance	-12.4297
▁revelation	-12.4297
▁satisfy	-12.4297
▁slopp	-12.4297
▁sponsors	-12.4297
▁strategy	-12.4297
▁symbolize	-12.4297
▁tapioca	-12.4297
▁tulips	-12.4297
▁underneath	-12.4297
▁unpardonable	-12.4297
▁unprecedented	-12.4297
▁victorious	-12.4297
▁vittles	-12.4297
▁vulnerable	-12.4297
▁length	-12.4297
▁ruthless	-12.4297
Bullseye	-12.4297
Unusual	-12.4297
cancellation	-12.4297
healthy	-12.4297
ndoubtedly	-12.4297
▁"1228	-12.4297
▁Eyeglasses	-12.4297
▁Indigo	-12.4297
▁Mommy	-12.4297
▁additive	-12.4297
▁apprentice	-12.4297
▁asphalt	-12.4297
▁colleague	-12.4297
▁conflict	-12.4297
▁credibility	-12.4297
▁cultur	-12.4297
▁demonstrate	-12.4297
▁engage	-12.4297
▁gossip	-12.4297
▁mafia	-12.4297
▁nowadays	-12.4297
▁purchase	-12.4297
ONE	-12.4297
▁addition	-12.4297
▁facilities	-12.4297
▁volume	-12.4297
DVD	-12.4297
▁"7777777."	-12.4297
▁corrupt	-12.4297
▁masterpiece	-12.4297
▁guardian	-12.4297
ngredients	-12.4297
▁5:18	-12.4297
▁Dinner	-12.4297
▁predicted	-12.4297
▁visible	-12.4297
▁granddaughter	-12.4298
▁headache	-12.4298
ostility	-12.4298
▁Figur	-12.4298
▁abilities	-12.4298
▁temperature	-12.4298
▁zero	-12.4298
▁bygones	-12.4298
▁crisis	-12.4298
▁discharge	-12.4298
▁Received	-12.4298
▁entertaining	-12.4298
▁quote	-12.4298
▁zoo	-12.4298
Eyesore	-12.4298
▁commotion	-12.4298
▁uninform	-12.4298
▁extension	-12.4298
▁curtain	-12.4298
▁passport	-12.4298
NNNNNOOOOOOOOOO	-12.4298
▁Arrgh	-12.4298
▁panda	-12.4298
swooning	-12.4298
▁craft	-12.4298
▁facade	-12.4298
▁Reveal	-12.4298
▁crooked	-12.4298
▁pooch	-12.4298
whimper	-12.4298
▁frosted	-12.4298
▁ironic	-12.4298
▁tedious	-12.4298
▁coerci	-12.4298
▁excitement	-12.4298
▁prediction	-12.4298
▁9:5	-12.4298
▁Observing	-12.4298
▁classmate	-12.4298
convention	-12.4298
▁milk	-12.4298
▁Windbag	-12.4298
▁convey	-12.4298
▁import	-12.4298
▁insult	-12.4298
▁Relativity	-12.4298
Edgewo	-12.4298
▁chamber	-12.4298
goblin	-12.4298
pattern	-12.4298
▁Investigation	-12.4298
▁Unrelated	-12.4298
▁importance	-12.4298
▁Trade	-12.4298
▁salmon	-12.4298
Cheeky	-12.4298
achiev	-12.4298
▁farfetched	-12.4298
▁Strike	-12.4298
▁momma	-12.4298
▁eternal	-12.4298
Sugar	-12.4298
▁despair	-12.4298
▁misunderstood	-12.4298
ooooorr	-12.4298
▁graveyard	-12.4298
▁gallery	-12.4298
▁musical	-12.4298
▁senile	-12.4298
▁arrangement	-12.4298
▁super	-12.4298
▁priva	-12.4298
▁chuck	-12.4298
▁5:12	-12.4298
▁swallow	-12.4298
actic	-12.4298
▁crypt	-12.4298
▁huge	-12.4298
▁Appr	-12.4299
▁Fanta	-12.4299
▁German	-12.4299
▁videotape	-12.4299
▁France	-12.4299
▁Truly	-12.4299
▁preserved	-12.4299
▁viewpoint	-12.4299
▁interrogation	-12.4299
▁daily	-12.4299
▁antics	-12.4299
▁5:14.	-12.4299
▁winner	-12.4299
▁taxes	-12.4299
▁electricity	-12.4299
ferous	-12.4299
▁0.00	-12.4299
▁classified	-12.4299
▁Occasionally	-12.4299
▁Daddies	-12.4299
decency	-12.4299
▁dedicate	-12.4299
festiv	-12.4299
▁signature	-12.4299
▁talkative	-12.4299
▁existence	-12.4299
▁failure	-12.4299
▁earth	-12.4299
▁stories	-12.4299
▁danger	-12.4299
▁quake	-12.43
▁cancelled	-12.43
▁rude	-12.43
gulp	-12.43
▁confidential	-12.43
▁simultaneously	-12.43
▁stub	-12.43
▁ultimately	-12.43
▁Destiny	-12.43
Gulp	-12.43
IMPO	-12.43
▁shutter	-12.43
▁horr	-12.43
▁coward	-12.43
▁Investigator	-12.43
Oct	-12.43
▁Busy	-12.43
▁obsessed	-12.43
▁decor	-12.43
▁attend	-12.43
▁stress	-12.4301
▁underestimated	-12.4301
▁discussion	-12.4301
▁Worth	-12.4301
;&	-12.4301
ntellect	-12.4301
▁rattl	-12.4301
cksores	-12.4301
niform	-12.4301
▁cafe	-12.4301
▁success	-12.4301
▁squa	-12.4301
OST	-12.4301
▁3:00	-12.4301
▁reinvestigate	-12.4301
sanity	-12.4301
Ultimately	-12.4301
▁sixteen	-12.4302
▁oversight	-12.4302
▁sunflowers	-12.4302
▁Box	-12.4302
▁misheard	-12.4302
ratitude	-12.4302
▁blew	-12.4302
crawl	-12.4302
ients	-12.4302
▁reward	-12.4302
▁presume	-12.4302
▁series	-12.4302
lude	-12.4302
▁oppressi	-12.4303
▁publicity	-12.4303
▁telepathy	-12.4303
▁similarity	-12.4303
▁suspens	-12.4303
CCK	-12.4303
▁Hii	-12.4303
Step	-12.4304
▁bitten	-12.4304
▁recruit	-12.4304
artiste	-12.4304
▁trembling	-12.4304
▁Whaaaaaaaaaaaa	-12.4304
▁grip	-12.4304
▁confronted	-12.4305
▁Egad	-12.4305
▁improved	-12.4305
▁unsettled	-12.4305
vies	-12.4305
igation	-12.4305
▁adver	-12.4305
add	-12.4305
gical	-12.4305
▁triple	-12.4306
edges	-12.4306
▁suppress	-12.4306
▁lax	-12.4306
▁instruct	-12.4306
▁Rock	-12.4307
▁consideration	-12.4307
roblem	-12.4307
▁secured	-12.4307
▁complainin	-12.4308
WAY	-12.4308
▁collapsed	-12.4308
▁seque	-12.4308
▁originally	-12.4308
▁straw	-12.4309
rrgggh	-12.4309
▁Mmmrrrr	-12.4309
▁annoy	-12.4309
▁bored	-12.4309
Terry	-12.4309
▁policemen	-12.431
▁reopened	-12.431
▁vacat	-12.431
▁pinch	-12.431
idding	-12.431
▁contest	-12.4311
▁mentally	-12.4311
▁blam	-12.4311
▁sparkling	-12.4311
▁mount	-12.4311
wner	-12.4312
▁Gladly	-12.4312
▁respectable	-12.4312
▁Ready	-12.4312
▁salty	-12.4312
▁square	-12.4312
▁tripped	-12.4312
ooorrrrrrr	-12.4313
▁handsome	-12.4314
Unbelievable	-12.4314
ference	-12.4314
gawkers	-12.4314
rdless	-12.4315
▁idol	-12.4315
▁attracted	-12.4316
▁smoothly	-12.4316
▁ordinar	-12.4316
▁layer	-12.4317
oncho	-12.4317
▁shootout	-12.4317
▁trot	-12.4317
umpkin	-12.4318
▁shine	-12.4319
▁genre	-12.4319
▁waxed	-12.4319
▁American	-12.4319
▁Investigating	-12.4319
▁Anyhow	-12.432
cho	-12.432
▁Ouch	-12.432
▁accurately	-12.432
▁Totally	-12.4321
▁dragon	-12.4321
ultra	-12.4322
▁terrifie	-12.4322
▁chilly	-12.4322
▁twisted	-12.4322
▁personage	-12.4323
▁shouting	-12.4323
▁mister	-12.4323
essage	-12.4323
▁creepy	-12.4323
▁weather	-12.4323
aign	-12.4324
▁Creat	-12.4324
▁thunder	-12.4325
▁poisoning	-12.4325
▁joy	-12.4325
▁lobby	-12.4326
▁smoking	-12.4326
▁surmised	-12.4326
▁Cind	-12.4326
▁succe	-12.4326
▁apple	-12.4327
GA	-12.4328
ragic	-12.4329
▁headline	-12.433
ject	-12.4332
▁Inter	-12.4332
▁programming	-12.4332
▁deb	-12.4333
▁Eviden	-12.4333
▁unlike	-12.4333
▁budge	-12.4334
▁reminiscing	-12.4335
▁loser	-12.4335
▁nighttime	-12.4335
acious	-12.4335
▁discovery	-12.4336
Chance	-12.4336
tech	-12.4336
ordina	-12.4337
▁wallet	-12.4337
▁liar	-12.4338
▁puzzled	-12.4338
▁reacted	-12.434
romise	-12.4341
ording	-12.4342
▁inserted	-12.4343
▁incompetent	-12.4343
scot	-12.4344
▁rice	-12.4345
▁surfaced	-12.4345
▁sane	-12.4346
▁outdoor	-12.4346
▁announcer	-12.4348
▁neat	-12.4348
interred	-12.4348
Pardner	-12.4348
▁salt	-12.4348
Incredible	-12.4349
▁tax	-12.435
▁heavi	-12.4352
▁fond	-12.4353
▁ON	-12.4353
▁Place	-12.4353
▁saddle	-12.4353
▁Scars	-12.4354
▁soda	-12.4354
▁Ngh	-12.4357
ction	-12.4358
▁drawl	-12.4359
lead	-12.4359
ital	-12.4359
▁curl	-12.436
verage	-12.4361
▁temper	-12.4361
Eh	-12.4362
xcellent	-12.4362
▁complaining	-12.4363
▁dazed	-12.4363
▁analyzed	-12.4364
cooperative	-12.4365
▁steed	-12.4366
ketch	-12.4366
courage	-12.4367
▁exposed	-12.4367
▁informed	-12.4369
▁continuing	-12.4371
▁peer	-12.4372
tcha	-12.4373
▁Jose	-12.4374
andprint	-12.4374
lander	-12.4375
gated	-12.4376
▁ug	-12.4377
▁shivers	-12.4379
▁cal	-12.4379
▁amaze	-12.438
▁therefore	-12.4388
unset	-12.4389
▁operate	-12.439
▁thief	-12.4391
▁#2"...	-12.4391
▁irre	-12.4391
▁cleaner	-12.4392
▁tricky	-12.4392
▁sophisticated	-12.4392
gic	-12.4393
▁celebrit	-12.4394
▁suggested	-12.4394
▁char	-12.4396
▁tick	-12.4397
▁squeez	-12.4397
▁Zipp	-12.4399
▁function	-12.4399
Dete	-12.4399
▁geezer	-12.4399
99	-12.4399
▁Creep	-12.4399
▁individual	-12.4399
▁Yikes	-12.4399
▁12/2	-12.44
▁Details	-12.44
making	-12.44
▁poncho	-12.44
▁Ok	-12.4401
▁disappointment	-12.4401
▁Personally	-12.4402
▁poet	-12.4405
▁task	-12.4406
▁goodbye	-12.4406
▁seal	-12.4406
▁briefing	-12.4407
nquirably	-12.4407
-16	-12.4408
▁wreck	-12.4408
▁warning	-12.4409
▁bloom	-12.441
cution	-12.4411
▁proceeding	-12.4414
▁Pow	-12.4414
▁Clearly	-12.4414
▁gen	-12.4415
▁brat	-12.4416
call	-12.4416
estig	-12.4416
▁delivery	-12.4416
▁camp	-12.4416
▁labeled	-12.4419
▁sighted	-12.4421
▁dumped	-12.4422
▁pleas	-12.4423
▁bait	-12.4426
▁Read	-12.4426
▁backwards	-12.4428
▁thoughtless	-12.443
activity	-12.4433
▁breach	-12.4433
▁operates	-12.4434
ately	-12.4437
▁Hill	-12.4443
▁Suit	-12.4444
▁extend	-12.4445
▁anytime	-12.445
▁president	-12.4452
core	-12.4452
▁candle	-12.4455
▁player	-12.4456
▁bul	-12.4458
objections	-12.4462
▁wounded	-12.4463
othes	-12.4464
▁comf	-12.4468
roken	-12.4471
theless	-12.4473
▁bills	-12.4473
▁yup	-12.4475
▁spoken	-12.4477
biased	-12.4479
▁framed	-12.4483
▁unwi	-12.4485
▁Cap	-12.4485
▁dresser	-12.4487
▁Ooooo	-12.4491
frightened	-12.4493
▁corroborate	-12.4493
Shame	-12.4494
▁beef	-12.4495
ID	-12.4495
nical	-12.4495
sych	-12.4497
accord	-12.4499
▁Study	-12.4505
▁screamed	-12.4512
▁Cla	-12.4515
▁brains	-12.4522
▁messy	-12.4523
▁elders	-12.4523
▁skills	-12.4524
▁donut	-12.4524
▁TH	-12.4525
ff	-12.4527
▁nope	-12.4527
▁remarks	-12.4529
nice	-12.4529
▁customers	-12.453
IN	-12.4534
▁hemo	-12.454
▁affairs	-12.4541
▁input	-12.4545
alling	-12.4545
seeing	-12.4549
▁sighting	-12.4551
▁busi	-12.4555
▁vision	-12.4557
▁matched	-12.4562
▁rele	-12.4564
▁fright	-12.4564
hide	-12.4567
▁obsessi	-12.4569
slob	-12.4574
▁cont	-12.4578
▁thrill	-12.4578
▁ranch	-12.458
▁timing	-12.4592
ssert	-12.4596
controlled	-12.4598
▁Relati	-12.4599
▁income	-12.4599
▁blink	-12.46
▁goal	-12.4604
!?&#160;	-12.4606
▁challenged	-12.4615
owsers	-12.4615
▁relate	-12.4626
questionabl	-12.463
▁barg	-12.4634
▁Van	-12.4641
▁programm	-12.4641
feeding	-12.4643
tical	-12.4643
protection	-12.4647
▁Odd	-12.4654
,000.	-12.4658
▁admir	-12.4661
▁5842189.	-12.4665
stance	-12.4671
▁mid	-12.4672
personality	-12.4675
▁Las	-12.4677
▁characters	-12.4681
ign	-12.4681
tures	-12.4683
▁belongings	-12.4691
impy	-12.4692
irror	-12.4693
▁dogies	-12.4695
sleeping	-12.4698
▁tab	-12.4702
articipati	-12.4703
▁goose	-12.4706
observing	-12.4707
▁tossing	-12.4709
▁flat	-12.471
▁cr	-12.4712
eak	-12.4715
nquiries	-12.4724
miss	-12.4727
▁goner	-12.4729
assisted	-12.4731
etched	-12.4735
rth	-12.4737
▁meal	-12.474
▁Nowhere	-12.4741
▁race	-12.4752
lender	-12.4754
AI	-12.4758
▁belie	-12.4759
latter	-12.4765
obl	-12.4765
uty	-12.4779
▁knee	-12.478
▁bulletin	-12.4795
▁involve	-12.4797
▁wink	-12.4799
▁10-	-12.4808
act	-12.481
▁Wri	-12.4822
town	-12.4826
steam	-12.4826
▁secur	-12.4828
▁streets	-12.483
▁novices	-12.483
▁cash	-12.4831
▁shocking	-12.4831
reeze	-12.4831
force	-12.484
ew	-12.4841
ealed	-12.4842
▁misunderst	-12.4842
uc	-12.4842
ette	-12.4843
hair	-12.4843
▁leap	-12.4846
TAN	-12.4849
▁bells	-12.4851
ence	-12.486
▁(2	-12.4861
▁limp	-12.4864
▁reopen	-12.4889
willing	-12.49
▁sala	-12.4901
ox	-12.4916
▁Obviously	-12.4917
ived	-12.492
▁math	-12.492
icking	-12.4923
▁Welcome	-12.4923
secretary	-12.4937
AHH	-12.494
▁inept	-12.4941
▁gree	-12.4947
▁tastes	-12.4947
▁blush	-12.4951
▁Hand	-12.4954
▁10:0	-12.4958
tant	-12.4963
▁impos	-12.4971
▁sou	-12.4971
▁"1	-12.4977
▁dash	-12.4978
runchy	-12.4979
▁choices	-12.4981
▁hotdogs	-12.4982
▁committ	-12.4985
▁poison	-12.4986
▁Bye	-12.4987
▁attest	-12.4989
uspicions	-12.499
▁unchang	-12.4998
ured	-12.4998
▁poke	-12.5002
▁kiss	-12.5007
▁ye	-12.5019
ties	-12.5019
cases	-12.503
▁objecting	-12.5032
▁tra	-12.504
▁bun	-12.5046
emotion	-12.5051
▁tuck	-12.5053
sty	-12.5085
▁stink	-12.5088
▁seek	-12.509
▁terms	-12.5091
lie	-12.5101
ome	-12.5107
rrrrrr	-12.5109
▁gras	-12.5109
▁accounts	-12.5129
▁soup	-12.5139
▁signed	-12.5141
rious	-12.5145
ips	-12.5154
▁falsif	-12.5155
spare	-12.5158
ouldn	-12.5161
▁Hol	-12.517
media	-12.5195
▁distra	-12.5197
▁3:	-12.5201
Pill	-12.5227
pper	-12.5228
▁gent	-12.5244
tly	-12.5253
5842189.	-12.5269
lighten	-12.5269
▁organs	-12.5277
tered	-12.5291
ripped	-12.5295
market	-12.5309
▁dri	-12.5324
▁Sustain	-12.534
▁prais	-12.5351
bber	-12.5356
Gre	-12.5361
Deep	-12.5362
hy	-12.5365
zza	-12.5369
cent	-12.5388
rl	-12.5392
▁spo	-12.5394
thing	-12.5396
gr	-12.5416
▁1228!	-12.5419
▁strangle	-12.5421
ackets	-12.5425
ike	-12.543
nick	-12.5433
▁nation	-12.5446
abbing	-12.5465
▁lett	-12.5486
iding	-12.5488
nic	-12.549
ranger	-12.5494
▁dull	-12.5495
flowers	-12.5495
crew	-12.5507
▁fur	-12.5536
astic	-12.5536
elebration	-12.5581
▁conditions	-12.5584
▁tighten	-12.5594
▁dente	-12.5597
sity	-12.5598
arm	-12.5616
▁ser	-12.5624
▁5:0	-12.5642
nam	-12.5656
▁prob	-12.5666
11	-12.5671
anding	-12.5687
mail	-12.5698
▁gut	-12.5707
nging	-12.5712
cially	-12.572
▁thereof	-12.5721
pa	-12.5721
acceptable	-12.5721
▁sa	-12.5726
--!?	-12.5739
▁behave	-12.5745
▁5:00.	-12.5752
urs	-12.5769
▁rooms	-12.5772
pel	-12.5777
have	-12.578
▁clim	-12.5785
▁guarded	-12.5795
own	-12.5804
deal	-12.5804
▁mo	-12.5813
▁Woooooooo	-12.5833
ists	-12.5847
stream	-12.587
fault	-12.5882
-7	-12.5893
ipping	-12.5907
▁burns	-12.5907
▁stu	-12.591
▁distr	-12.5919
Moving	-12.5921
▁remake	-12.593
▁ki	-12.5941
evenge	-12.5947
▁consu	-12.595
respond	-12.5978
ked	-12.5982
"-	-12.5998
▁ages	-12.6004
▁cla	-12.6005
▁lift	-12.6007
operation	-12.6011
▁worke	-12.6014
▁Mm	-12.6016
uuu	-12.6018
gl	-12.6023
20	-12.6025
▁Ca	-12.6058
▁appl	-12.6059
Hmmm	-12.6064
▁bel	-12.6068
▁Splendi	-12.6074
▁rings	-12.61
▁snapp	-12.6124
▁da	-12.6127
▁trails	-12.6127
Ris	-12.6138
grant	-12.6152
▁arm	-12.6169
ually	-12.6169
▁Simpl	-12.6188
▁Whaaaaaa	-12.6195
ehearsal	-12.6198
nsolved	-12.6217
waaaaaaaaaaaaa	-12.6274
▁touche	-12.6283
▁14	-12.6301
▁7777777	-12.6303
▁handi	-12.6303
▁NI	-12.6322
▁vacations	-12.6328
▁transferals	-12.6328
▁Stea	-12.6335
▁curs	-12.6336
▁Eeeee	-12.634
ule	-12.6344
petr	-12.6351
iating	-12.6357
Gak	-12.6361
▁sides	-12.6378
zen	-12.6385
nny	-12.6392
▁scr	-12.6397
ner	-12.6405
rigg	-12.6411
pp	-12.6428
▁Mis	-12.643
▁graduate	-12.6448
orking	-12.6472
ts	-12.6489
ssenger	-12.6512
▁render	-12.6519
took	-12.6548
▁wo	-12.6557
▁11:50.	-12.6568
ather	-12.6607
wn	-12.6645
quire	-12.6665
qui	-12.667
▁pushe	-12.6682
▁glu	-12.6685
stained	-12.6686
oster	-12.6704
▁ways	-12.6713
earrang	-12.6731
▁Gaaaaaaa	-12.6738
▁glo	-12.6756
Det	-12.6761
▁Chee	-12.6762
▁cardkeys	-12.6768
Some	-12.6769
acolytes	-12.677
▁Start	-12.6777
vered	-12.6785
air	-12.679
▁diso	-12.6796
!&#160;	-12.6806
▁Tre	-12.6815
erio	-12.6818
lies	-12.6823
▁motivat	-12.6853
▁juic	-12.6872
aaaah	-12.6882
▁inconvenien	-12.6887
ans	-12.689
▁af	-12.6899
▁sour	-12.6912
001	-12.6913
hem	-12.6921
▁lit	-12.6941
aaaaaaaaaaaaaaa	-12.6945
▁bi	-12.6948
ute	-12.6951
cuffs	-12.6953
▁takin	-12.6958
ramps	-12.6988
fled	-12.7001
▁decides	-12.702
▁Wo	-12.703
▁holes	-12.7048
ompetitors	-12.7078
▁dum	-12.7083
rize	-12.7092
signed	-12.71
▁dra	-12.7105
▁sk	-12.7127
gger	-12.7152
▁Pro	-12.7159
vice	-12.7163
▁sku	-12.7165
▁noted	-12.7167
▁16...	-12.7168
▁2:30...	-12.7174
akes	-12.7178
▁bat	-12.7182
▁stash	-12.7191
▁Letters	-12.7196
ssuming	-12.7201
▁Us	-12.7215
rose	-12.7219
▁tryin	-12.7227
▁40!	-12.7231
ssembl	-12.7236
▁duel	-12.7249
rated	-12.7292
shoe	-12.7316
▁pun	-12.7324
▁badger	-12.7328
Ac	-12.733
▁rough	-12.7341
▁los	-12.7367
.7	-12.738
ball	-12.7388
ad	-12.7403
▁whi	-12.7406
ingly	-12.741
▁includ	-12.7461
SS	-12.7488
▁swo	-12.7536
marked	-12.7573
▁Myster	-12.7574
▁unforg	-12.7596
▁tall	-12.7609
▁Aaaa	-12.7619
ody	-12.7641
squat	-12.765
▁hu	-12.7657
▁connections	-12.766
arded	-12.7678
▁cit	-12.7699
▁daw	-12.7742
tri	-12.7758
▁mea	-12.7793
▁Youth	-12.7795
▁Waaaaaa	-12.7806
▁suck	-12.7812
▁Waaaa	-12.782
▁severe	-12.7821
▁10:	-12.7835
mere	-12.7862
▁dogg	-12.7874
▁god	-12.79
ri	-12.7903
▁doll	-12.7903
reg	-12.7912
▁remembering	-12.792
under	-12.7938
▁Aaaaaa	-12.794
els	-12.7942
OU	-12.7945
▁Ch	-12.7948
nights	-12.7954
patient	-12.796
▁12:1	-12.7963
tric	-12.8018
▁blu	-12.8019
▁overturn	-12.8031
oli	-12.8037
▁popp	-12.806
aaaaaaaaaaaaah	-12.8095
ke	-12.8141
ely	-12.8141
harge	-12.816
with	-12.8176
nstant	-12.8186
rrow	-12.819
llen	-12.8198
▁quali	-12.8226
▁Surprising	-12.8239
22	-12.8244
▁underg	-12.8249
disposed	-12.8259
ehold	-12.827
harmed	-12.8287
onfession	-12.8291
oking	-12.8306
▁announc	-12.8328
▁amus	-12.8347
round	-12.8387
▁babble	-12.8393
▁Whom	-12.8396
ents	-12.8406
faked	-12.8413
hearing	-12.8417
reak	-12.8421
▁Ohhh	-12.8423
proved	-12.8432
going	-12.8456
▁28...	-12.846
▁trapp	-12.8474
forget	-12.8474
▁spi	-12.8479
▁pontificat	-12.8507
cker	-12.8522
lling	-12.8536
has	-12.8548
wap	-12.8548
fighter	-12.8586
▁Ob	-12.8586
AL	-12.8598
fl	-12.8601
Grade	-12.8614
▁legi	-12.8621
▁doin	-12.8635
▁Noooooooooooooo	-12.8639
Jo	-12.8651
termination	-12.866
nvestigate	-12.8684
beard	-12.8697
▁sn	-12.8735
ined	-12.8766
▁stirr	-12.8766
▁ar	-12.8776
sures	-12.8792
eat	-12.8794
wise	-12.8806
-6"...	-12.8828
put	-12.8831
ved	-12.8848
orgeous	-12.886
▁physic	-12.8895
▁Ye	-12.8901
ased	-12.8906
ky	-12.8946
event	-12.8948
ded	-12.8952
name	-12.8967
35	-12.8996
▁king	-12.9002
ail	-12.9008
▁tempo	-12.9017
WHE	-12.9021
Dam	-12.9032
ct	-12.9035
aling	-12.9067
▁pros	-12.9069
▁slam	-12.9071
lled	-12.908
bby	-12.909
▁doze	-12.9092
sing	-12.9113
▁wis	-12.9126
appeared	-12.9153
▁Wind	-12.9174
embling	-12.9188
▁impress	-12.9191
▁handl	-12.9192
ident	-12.9213
▁slap	-12.9214
otally	-12.9225
▁Noooooooooooo	-12.9226
AD	-12.9237
rary	-12.9238
▁bigge	-12.9247
ours	-12.9251
▁jog	-12.9267
ego	-12.9268
acti	-12.9309
▁dro	-12.9332
catch	-12.9337
named	-12.9345
EE	-12.9349
pend	-12.9354
▁id	-12.937
▁fal	-12.9392
▁punch	-12.9449
redit	-12.9452
▁swor	-12.9457
▁den	-12.9464
▁spec	-12.947
losing	-12.9482
▁sol	-12.9484
▁Gla	-12.9512
▁wor	-12.9516
Gumshoe	-12.9519
arrang	-12.9531
ushed	-12.9546
den	-12.9572
fteen	-12.9587
convenience	-12.961
too	-12.9637
store	-12.964
▁lu	-12.9755
▁acolyte	-12.9762
▁resign	-12.9783
▁WA	-12.9789
▁Sam	-12.9796
▁adhe	-12.9801
▁Defendant	-12.9802
▁compa	-12.9804
ise	-12.9806
▁Bow	-12.9836
▁Jol	-12.9849
▁Kn	-12.986
gar	-12.9862
spiring	-12.9878
AAAAAAAHHHHH	-12.988
▁schools	-12.9882
ining	-12.9895
ential	-12.9927
ipped	-12.9945
2"...	-12.9945
anted	-12.9951
▁tops	-12.9978
nished	-13.0011
ark	-13.0023
OR	-13.0043
cap	-13.0056
unchy	-13.0059
▁cuttin	-13.0087
▁influenc	-13.0097
argh	-13.0099
▁flag	-13.0141
iness	-13.0142
▁rel	-13.0147
rag	-13.0156
▁surprising	-13.0172
▁batter	-13.0187
02	-13.0198
▁graduat	-13.021
▁2:30.	-13.0223
▁unofficial	-13.0232
▁sever	-13.0232
▁AAAAAAAHHHH	-13.0251
azing	-13.027
tation	-13.027
reach	-13.0282
lk	-13.0285
ft	-13.0294
NA	-13.0331
▁delic	-13.0337
und	-13.035
▁gra	-13.0372
▁hopeful	-13.0376
▁remembers	-13.0396
▁cu	-13.0403
▁Attorneys	-13.041
▁2:1	-13.0428
▁theorize	-13.0438
idiculous	-13.046
aaaaa	-13.0472
▁bas	-13.0474
▁sca	-13.048
▁fat	-13.0484
SN	-13.0507
odged	-13.0539
empt	-13.0543
labor	-13.0546
▁boa	-13.0552
volv	-13.0556
▁hits	-13.0569
▁4:00..	-13.0579
olished	-13.059
▁address	-13.0591
▁ac	-13.0595
.........	-13.06
addle	-13.0647
▁brush	-13.0654
▁Sight	-13.0677
▁pric	-13.068
Bet	-13.0686
tor	-13.0701
men	-13.0706
rt	-13.0718
▁starts	-13.0739
▁gru	-13.0759
asically	-13.0777
▁Meet	-13.0805
ok	-13.0834
cal	-13.086
erate	-13.0863
nock	-13.0895
Pops	-13.0936
▁kidd	-13.0939
elling	-13.0942
▁Li	-13.0946
killed	-13.0968
▁Ab	-13.0969
senti	-13.0971
▁origin	-13.0974
Finish	-13.098
▁cuff	-13.0987
des	-13.099
ti	-13.1002
▁Fo	-13.1046
▁gener	-13.1056
ude	-13.1059
▁factor	-13.1069
▁neg	-13.1077
▁pen	-13.1082
▁jam	-13.1115
▁retra	-13.1128
aws	-13.1129
mputer	-13.113
ooooooooo	-13.1143
▁spe	-13.1167
ployee	-13.1169
BL	-13.117
tained	-13.1193
never	-13.1212
▁aaa	-13.1243
hes	-13.1243
▁social	-13.1258
▁Had	-13.1279
▁Mornin	-13.128
ersonnel	-13.1293
▁terr	-13.1294
run	-13.1322
ix	-13.133
tz	-13.1333
Ca	-13.1336
cut	-13.1359
▁pleases	-13.1359
urprisingly	-13.136
▁medi	-13.1392
nn	-13.1416
▁Ex	-13.1422
vol	-13.143
▁passe	-13.1457
rn	-13.1457
ces	-13.1462
self	-13.1464
ank	-13.1481
gist	-13.1484
eeling	-13.149
▁hilari	-13.1496
could	-13.1504
▁indicat	-13.1505
its	-13.1507
eeting	-13.1531
withstand	-13.1536
scene	-13.1538
▁Learn	-13.1541
▁Bl	-13.1554
speci	-13.1601
ering	-13.1626
burgers	-13.163
que	-13.163
.00	-13.1637
▁4:	-13.1638
▁bla	-13.1642
▁sly	-13.1648
▁IDs	-13.1672
▁beds	-13.1674
Objection	-13.1704
os	-13.1715
initi	-13.1736
ault	-13.1771
bbing	-13.1783
ore	-13.1784
quisition	-13.1812
worth	-13.1814
▁Aaaaaaaaaaaaa	-13.1814
▁fabricate	-13.1815
▁pale	-13.1817
gazin	-13.1818
West	-13.1823
etera	-13.1828
vision	-13.1829
bled	-13.1862
▁1228	-13.1872
tive	-13.1886
▁Whaa	-13.1886
mean	-13.1887
als	-13.1896
ib	-13.193
5,	-13.1935
VE	-13.1969
▁brea	-13.1995
▁cat	-13.2
...[	-13.2002
Se	-13.2004
▁scann	-13.2026
▁murders	-13.2032
▁sympath	-13.2041
▁Em	-13.2043
▁Wor	-13.2059
War	-13.206
uriouser	-13.2083
standing	-13.2115
cu	-13.2119
lid	-13.2127
▁Ol	-13.2129
umping	-13.2144
▁sneez	-13.2147
ooks	-13.2159
▁writ	-13.2162
zzzz	-13.2169
bes	-13.2176
▁Whaaa	-13.2207
-6...	-13.2225
testimony	-13.2227
etting	-13.2246
▁Nooooooooooooo	-13.2256
loating	-13.2264
▁sha	-13.2272
ood	-13.2277
whippersnappers	-13.2287
understand	-13.2301
erous	-13.2307
▁Fals	-13.2324
aaaaaaaaaaaaa	-13.2329
part	-13.2335
bag	-13.2339
test	-13.2347
wing	-13.2387
da	-13.2387
▁pardners	-13.2389
-9?	-13.2406
tight	-13.2409
▁prem	-13.2427
rewing	-13.243
lo	-13.2438
cement	-13.2472
rial	-13.2478
SA	-13.2504
▁inflat	-13.2507
▁Namel	-13.2512
▁crea	-13.2519
must	-13.253
▁prec	-13.2551
SH	-13.2556
▁wanderin	-13.2557
▁gettin	-13.2573
eep	-13.2574
trust	-13.258
arned	-13.2583
motion	-13.259
▁settl	-13.26
▁Falsif	-13.2605
&	-13.2607
▁LA	-13.2621
▁Ult	-13.2643
fore	-13.2651
oisoned	-13.2657
zing	-13.2663
▁Su	-13.2687
aa	-13.27
guess	-13.2719
▁blur	-13.2727
▁dar	-13.273
nois	-13.2734
▁parl	-13.2777
opening	-13.2794
icious	-13.2795
▁9:2	-13.2798
▁Gra	-13.2809
ings	-13.2824
tched	-13.2826
Meekins	-13.2836
make	-13.2836
ason	-13.2867
ooking	-13.2867
ucks	-13.2877
▁assum	-13.2878
ooked	-13.2888
fanboys	-13.292
▁sid	-13.2942
eh	-13.2951
▁nam	-13.297
▁disturb	-13.298
▁fixin	-13.2986
▁Chu	-13.2986
▁Loc	-13.2992
Hammer	-13.3013
cup	-13.3018
hand	-13.302
▁refer	-13.3025
story	-13.3028
▁proc	-13.304
lace	-13.3046
▁Fla	-13.3054
plica	-13.3066
arred	-13.307
▁app	-13.307
knife	-13.3081
▁involv	-13.3095
▁assist	-13.3121
AAAH	-13.3121
iable	-13.3124
pal	-13.313
point	-13.3137
:14	-13.3141
kers	-13.3155
▁stri	-13.3161
▁NO	-13.3163
off	-13.3163
▁omit	-13.3178
scars	-13.3194
picture	-13.3195
▁trans	-13.3197
▁Free	-13.3202
duction	-13.3208
▁spar	-13.322
range	-13.3232
▁ad	-13.3235
camera	-13.3238
nywhere	-13.3267
remember	-13.3268
trial	-13.3276
▁repli	-13.3277
cking	-13.3298
weapon	-13.3307
rph	-13.3307
much	-13.3329
tle	-13.3333
▁Abo	-13.3338
▁Wi	-13.3347
print	-13.3349
people	-13.3352
say	-13.3355
urrently	-13.3359
▁Lar	-13.3373
guard	-13.3389
▁Ess	-13.3402
rest	-13.3407
▁ja	-13.3412
ST	-13.3418
sca	-13.3428
serted	-13.344
second	-13.3444
istance	-13.3456
Ab	-13.3472
strange	-13.3477
ace	-13.3482
▁Ou	-13.3491
professionals	-13.3492
Darke	-13.3493
▁prep	-13.3494
▁boo	-13.3505
talk	-13.3508
▁grav	-13.3508
▁lab	-13.3516
▁sens	-13.3517
HE	-13.3518
▁mos	-13.3524
race	-13.353
lance	-13.3541
doing	-13.3545
these	-13.3554
possible	-13.3557
▁focus	-13.3561
▁Judg	-13.3567
EA	-13.3576
poke	-13.358
click	-13.3582
▁Sci	-13.3585
video	-13.3586
mighty	-13.3588
studio	-13.3594
line	-13.3596
investigation	-13.3599
▁Yaaaaaaaaaaaaaa	-13.3603
▁panic	-13.3604
Law	-13.3606
fair	-13.3608
,000	-13.361
sc	-13.3622
▁tackl	-13.3632
▁complet	-13.3643
ifiable	-13.3643
unting	-13.3647
ammo	-13.3665
afraid	-13.3673
RST	-13.3673
report	-13.3675
live	-13.368
innocent	-13.3682
substan	-13.3692
les	-13.3695
dged	-13.3707
killer	-13.3721
▁opera	-13.3723
Hmph	-13.3726
change	-13.3729
▁Oo	-13.3731
▁logic	-13.3738
true	-13.3748
keeper	-13.376
script	-13.3765
maybe	-13.3768
cloth	-13.3768
star	-13.377
▁amo	-13.377
may	-13.3771
pardner	-13.3773
break	-13.3778
AHHHHHH	-13.3779
▁Yaa	-13.3783
bellboy	-13.3786
officer	-13.3787
asked	-13.3787
mmmm	-13.3788
fanboy	-13.3793
aaaaaaaah	-13.3798
▁ble	-13.3799
behind	-13.3805
ogically	-13.3805
▁lib	-13.3808
▁Profession	-13.3809
Su	-13.3809
▁wrap	-13.3823
death	-13.3825
▁frighten	-13.383
▁disa	-13.3833
simple	-13.3836
kiss	-13.3838
job	-13.3839
those	-13.3847
▁lac	-13.3847
impossible	-13.3848
▁hol	-13.3852
fine	-13.3853
Think	-13.3856
pensive	-13.3856
dots	-13.3859
▁sat	-13.3859
certainly	-13.3865
▁appoint	-13.387
▁understandabl	-13.3871
pick	-13.3875
file	-13.3876
pop	-13.3879
sible	-13.3885
PM	-13.3885
$1	-13.3886
▁bias	-13.3886
ravo	-13.3887
▁mutt	-13.3889
▁Gumsho	-13.3889
pupp	-13.3891
together	-13.3891
▁12:	-13.3892
Thinker	-13.3893
woman	-13.3893
gro	-13.3893
Remember	-13.3893
written	-13.39
▁Se	-13.3904
▁Hrrr	-13.3906
become	-13.3912
dream	-13.3912
wiretap	-13.3915
blush	-13.3917
fight	-13.3921
committed	-13.3922
obvious	-13.3925
fingerprints	-13.3927
quick	-13.3928
paper	-13.3928
NOOOOOO	-13.3932
Lawyer	-13.3937
Worthy	-13.3937
bottom	-13.3937
straight	-13.3938
shing	-13.394
Try	-13.3941
object	-13.3946
far	-13.3946
Sure	-13.3951
▁secretar	-13.3955
world	-13.3957
jump	-13.396
shield	-13.396
simultaneous	-13.397
fell	-13.3972
fast	-13.3975
circumstan	-13.3976
noticed	-13.3978
cool	-13.3978
legal	-13.3978
Trailer	-13.3979
anymore	-13.3979
Exactly	-13.3985
rotecting	-13.3985
Only	-13.3985
Darn	-13.3985
crash	-13.3985
strike	-13.3986
direct	-13.3986
Nooooooooooooo	-13.3987
Crime	-13.3988
23	-13.399
grade	-13.3991
Guard	-13.3993
kids	-13.3993
somehow	-13.3993
indeed	-13.3994
mistaken	-13.3996
Today	-13.3996
shock	-13.3998
page	-13.3998
absolutely	-13.3998
duty	-13.3999
True	-13.4
Every	-13.4
boyfriend	-13.4001
Any	-13.4001
bury	-13.4001
versed	-13.4002
TH	-13.4002
funny	-13.4002
famous	-13.4004
scary	-13.4006
killing	-13.4006
foot	-13.4008
Time	-13.4009
Boy	-13.4009
▁moo	-13.401
stolen	-13.4011
▁smar	-13.4013
solid	-13.4016
proposal	-13.4017
research	-13.4017
reckon	-13.4022
Probably	-13.4022
blocked	-13.4022
tra	-13.4023
statue	-13.4023
spiky	-13.4024
shooter	-13.4026
grudge	-13.4028
Wrong	-13.4029
Receipt	-13.4029
cheer	-13.4029
Enough	-13.4031
Meaning	-13.4032
5:15	-13.4033
gentle	-13.4034
visit	-13.4035
drops	-13.4036
Absolutely	-13.4036
flower	-13.4037
Kind	-13.4038
Precisely	-13.4038
Personally	-13.4038
disappointment	-13.404
Unless	-13.404
4:00	-13.404
abso	-13.404
28	-13.4041
Details	-13.4041
visitor	-13.4041
individual	-13.4042
Yikes	-13.4042
prep	-13.4042
easy	-13.4042
Creep	-13.4042
geezer	-13.4042
backwards	-13.4043
connected	-13.4043
family	-13.4043
5:00	-13.4043
goodbye	-13.4044
Zipp	-13.4044
paghetti	-13.4044
poncho	-13.4044
fishy	-13.4044
▁min	-13.4044
human	-13.4045
function	-13.4045
practice	-13.4045
12/2	-13.4045
Interesting	-13.4045
Except	-13.4045
interesting	-13.4046
Add	-13.4046
updated	-13.4047
illegal	-13.4048
spear	-13.4049
argument	-13.4049
blue	-13.405
type	-13.405
eatin	-13.4051
luminol	-13.4052
Next	-13.4052
risk	-13.4053
▁facin	-13.4053
bigwigs	-13.4053
million	-13.4053
Though	-13.4054
Innocent	-13.4054
CEO	-13.4054
dark	-13.4055
popper	-13.4055
Prospector	-13.4055
Resignation	-13.4055
Bah	-13.4055
prosecuting	-13.4055
squeez	-13.4055
beef	-13.4056
partition	-13.4056
Memo	-13.4056
grown	-13.4056
Regard	-13.4057
confidence	-13.4057
prepared	-13.4057
benefit	-13.4057
▁tende	-13.4057
flustered	-13.4058
Gumtree	-13.4058
Second	-13.4058
inflate	-13.4059
cheap	-13.4059
flimsy	-13.4059
insulator	-13.4059
Hurry	-13.4059
legend	-13.406
Fifteen	-13.406
Sofa	-13.406
shut	-13.406
recognize	-13.406
puppet	-13.4061
sophisticated	-13.4061
Easy	-13.4061
public	-13.4061
quickly	-13.4061
official	-13.4061
accepted	-13.4061
ruined	-13.4062
disappointed	-13.4062
bonus	-13.4062
impact	-13.4062
clouds	-13.4062
dressed	-13.4062
track	-13.4062
highest	-13.4062
falsified	-13.4063
suffered	-13.4063
overlooked	-13.4064
cooperate	-13.4064
conduct	-13.4064
accurate	-13.4064
injury	-13.4065
executed	-13.4065
previous	-13.4066
YOU	-13.4066
discover	-13.4066
earthquake	-13.4066
Run	-13.4066
errands	-13.4066
limits	-13.4067
unsolved	-13.4067
drama	-13.4068
Base	-13.4068
enemy	-13.4068
Glad	-13.4069
tests	-13.4069
voca	-13.4071
40	-13.4071
bail	-13.4072
anyhow	-13.4072
▁identi	-13.4072
odd	-13.4072
▁Seven	-13.4073
Nope	-13.4073
throat	-13.4074
original	-13.4074
Hard	-13.4075
hunting	-13.4076
Object	-13.4078
rumor	-13.4079
hidden	-13.4079
justice	-13.408
silly	-13.408
eager	-13.4082
Ohhh	-13.4083
Off	-13.4083
▁chang	-13.4084
New	-13.4084
employees	-13.4084
bon	-13.4085
color	-13.4086
DJ	-13.4088
bound	-13.4088
manner	-13.4089
Dead	-13.409
checked	-13.4091
Read	-13.4092
Whoever	-13.4092
born	-13.4092
bump	-13.4093
prosecute	-13.4094
trade	-13.4095
touch	-13.4095
▁shiver	-13.4097
discovered	-13.4097
depend	-13.4098
▁demon	-13.4098
weak	-13.4101
count	-13.4103
Yay	-13.4103
▁keepin	-13.4104
hoo	-13.4105
sofa	-13.4105
▁Waaaaaaaaaaa	-13.4108
▁technique	-13.411
murdered	-13.4111
Ever	-13.4111
▁allegation	-13.4112
isturbing	-13.4113
▁Hackin	-13.4114
▁geniu	-13.4114
▁comment	-13.4122
hush	-13.4126
uicide	-13.4126
▁havin	-13.4126
cate	-13.4129
raised	-13.4129
chool	-13.413
pirit	-13.4131
▁Killing	-13.4135
ippie	-13.4135
stranger	-13.4135
▁Offic	-13.4135
temper	-13.4137
shooting	-13.4138
activ	-13.4138
Head	-13.4143
▁excel	-13.4144
join	-13.4144
▁rende	-13.4146
vali	-13.4148
ification	-13.4148
zzling	-13.4153
Lea	-13.4157
cisive	-13.4158
working	-13.416
grin	-13.4162
dash	-13.4164
rules	-13.4165
suicide	-13.4172
Dark	-13.4172
aterfalls	-13.4173
▁contin	-13.4174
waaaa	-13.4175
rash	-13.4175
guarded	-13.4175
account	-13.4176
pink	-13.4176
reflect	-13.4176
sense	-13.4178
dge	-13.4179
necessary	-13.4179
hooting	-13.4179
▁irr	-13.4181
▁instan	-13.4181
▁incompeten	-13.4181
clusive	-13.4182
alian	-13.4184
ayup	-13.4184
aaaaaaa	-13.4185
single	-13.4186
▁heartl	-13.4193
fate	-13.4194
▁freak	-13.4195
utomatic	-13.4195
fram	-13.4195
luminum	-13.4197
ssistant	-13.4199
▁emp	-13.42
ordin	-13.4202
high	-13.4203
samurai	-13.4203
acts	-13.4206
llegations	-13.4209
shame	-13.4209
pologize	-13.421
▁PR	-13.4211
nsurance	-13.4214
▁succ	-13.4218
statu	-13.4218
Item	-13.4218
igned	-13.4219
fall	-13.4219
Oof	-13.4221
▁excit	-13.4221
ING	-13.4223
▁Qu	-13.4223
ahem	-13.4227
▁EEEEEEE	-13.4227
oping	-13.4227
woke	-13.4229
pants	-13.4235
▁consist	-13.4236
jury	-13.4236
▁Karm	-13.4237
Ups	-13.4239
▁America	-13.4242
orize	-13.4245
house	-13.4245
vildoers	-13.4245
▁decid	-13.4245
spy	-13.4248
▁promis	-13.4249
▁rub	-13.425
nature	-13.4251
▁embarrass	-13.4251
▁terminat	-13.4251
▁qualifie	-13.4253
▁delu	-13.4254
Specific	-13.4254
headed	-13.4255
val	-13.4256
▁sti	-13.4259
yet	-13.426
▁sparkl	-13.4264
▁Nooooooooooo	-13.4265
▁Question	-13.4266
▁whisper	-13.4266
intend	-13.4266
▁exercis	-13.4269
chop	-13.4269
rrrrrrggg	-13.4269
▁struggl	-13.4269
▁collapse	-13.4271
excus	-13.4271
eteors	-13.4272
Edge	-13.4272
ected	-13.4272
▁horribl	-13.4273
▁Surprise	-13.4274
hed	-13.4274
▁satisfie	-13.4276
Him	-13.4276
oooooooooooo	-13.4276
▁Whooooooo	-13.4276
▁instru	-13.4277
load	-13.4277
▁Quit	-13.4277
ership	-13.4277
dumped	-13.4277
▁colle	-13.4277
▁portra	-13.4278
▁unsettl	-13.4279
▁improv	-13.428
ime	-13.428
scrib	-13.428
▁punish	-13.4281
▁confront	-13.4281
▁establish	-13.4282
arily	-13.4282
riginal	-13.4282
ecruits	-13.4283
▁telepath	-13.4283
▁disappear	-13.4284
ricky	-13.4284
▁summar	-13.4284
wisted	-13.4284
prehend	-13.4285
▁autops	-13.4285
▁ceremon	-13.4286
ransferred	-13.4286
RU	-13.4286
oul	-13.4287
▁worrie	-13.4287
ixteen	-13.4288
locat	-13.4288
boli	-13.4289
▁radi	-13.4289
atisfied	-13.4291
▁responsibilit	-13.4291
unflowers	-13.4291
peech	-13.4291
▁ultimate	-13.4292
▁Perfect	-13.4292
▁element	-13.4292
mooth	-13.4293
absolute	-13.4293
▁definite	-13.4293
horiz	-13.4293
ccasionally	-13.4293
▁possessi	-13.4293
ircumstan	-13.4293
inoculars	-13.4294
ncinerator	-13.4294
▁accompan	-13.4294
appened	-13.4294
▁perpetrat	-13.4294
rospect	-13.4294
▁relieve	-13.4294
bbin	-13.4294
▁interrogat	-13.4294
▁Hrr	-13.4294
rrelevant	-13.4294
iculous	-13.4295
gnore	-13.4295
andaged	-13.4295
▁Q	-13.4295
nquiry	-13.4295
erpetrator	-13.4295
enalized	-13.4295
enalty	-13.4295
Trans	-13.4295
conscious	-13.4295
onvenient	-13.4295
ositive	-13.4295
pant	-13.4296
razy	-13.4296
omicide	-13.4296
udicrous	-13.4296
efinitely	-13.4296
ieces	-13.4296
▁critic	-13.4296
xperience	-13.4296
njoy	-13.4296
tographs	-13.4296
imitations	-13.4296
▁eviden	-13.4296
oincidence	-13.4296
isguis	-13.4297
▁etern	-13.4297
AAAAAAAAH	-13.4297
struction	-13.4297
ondition	-13.4297
▁Whooooooooooo	-13.4297
AAAAHH	-13.4297
uidemap	-13.4297
onversation	-13.4297
▁depriv	-13.4297
ompletely	-13.4297
▁occup	-13.4297
pression	-13.4297
memor	-13.4297
ligence	-13.4297
Observ	-13.4297
socia	-13.4297
secutor	-13.4297
▁NNNN	-13.4297
▁convers	-13.4297
elativity	-13.4297
ffic	-13.4297
hildren	-13.4297
preserv	-13.4297
▁Introduc	-13.4297
▁$38.	-13.4297
▁divide	-13.4297
Receiv	-13.4297
parent	-13.4297
AAAAAATTTTT	-13.4297
gghh	-13.4297
Immediate	-13.4297
AAATTTTT	-13.4297
HHAAAAAA	-13.4297
wowowowowow	-13.4297
sssssssss	-13.4297
HAAAAAAA	-13.4297
KKK	-13.4297
NNNNOOOOOOO	-13.4297
NNNO	-13.4297
sistency	-13.4297
MMMMMMMMMMMM	-13.4297
raveyard	-13.4297
HAAAAAAAAAT	-13.4297
EEEEEEEEEEE	-13.4297
hutupshutup	-13.4297
▁NNNNOOOOO	-13.4297
1-3	-13.4298
alutin	-13.4298
gnific	-13.4298
▁ORDE	-13.4298
HAAAAAAT	-13.4298
predict	-13.4298
illows	-13.4298
curred	-13.4298
▁insigni	-13.4298
▁11:5	-13.4298
evance	-13.4298
RRRRR	-13.4298
▁easie	-13.4298
▁12:0	-13.4298
▁numb	-13.4298
CUR	-13.4298
teria	-13.4298
unshots	-13.4298
diction	-13.4298
daughter	-13.4298
▁explo	-13.4298
xtreme	-13.4298
▁decl	-13.4299
timate	-13.4299
awkers	-13.4299
spired	-13.4299
KCK	-13.4299
fortun	-13.4299
ifference	-13.4299
orensics	-13.4299
iolent	-13.43
▁appar	-13.43
xed	-13.43
edient	-13.43
cogni	-13.43
rawer	-13.43
▁distanc	-13.43
volu	-13.43
bras	-13.43
ario	-13.4301
remium	-13.4301
dios	-13.4301
entenc	-13.4301
blowin	-13.4301
NOOOOOOOOOO	-13.4301
37	-13.4302
imony	-13.4302
▁Abso	-13.4302
icated	-13.4302
spaghetti	-13.4302
ivable	-13.4302
▁1:0	-13.4302
▁papa	-13.4303
hhhhhh	-13.4303
▁2:4	-13.4303
▁depart	-13.4303
▁2:0	-13.4304
AAAAHHHH	-13.4304
▁vul	-13.4304
98	-13.4305
authori	-13.4305
RRR	-13.4305
spici	-13.4305
▁fluster	-13.4305
▁Whoooooooo	-13.4305
▁music	-13.4305
vous	-13.4305
▁prospect	-13.4306
gue	-13.4306
ungry	-13.4306
quest	-13.4307
▁negat	-13.4307
▁namin	-13.4307
cial	-13.4308
rupt	-13.4308
cussion	-13.4308
▁scienti	-13.4308
entatio	-13.4308
uppose	-13.4308
ilities	-13.4309
zzz	-13.4309
▁frag	-13.4309
▁master	-13.431
▁iron	-13.431
▁whip	-13.431
▁burg	-13.431
tiful	-13.4311
consistent	-13.4311
▁settin	-13.4312
▁Secur	-13.4312
ula	-13.4312
tatement	-13.4312
▁shoutin	-13.4312
Rep	-13.4312
diot	-13.4313
halleng	-13.4313
▁defens	-13.4313
Conc	-13.4315
▁equip	-13.4315
pops	-13.4316
▁excite	-13.4316
kay	-13.4316
escribe	-13.4316
▁kiddin	-13.4317
▁south	-13.4318
▁rev	-13.4318
ense	-13.4319
GG	-13.4319
fetched	-13.4319
ntary	-13.4319
alright	-13.4319
▁Whooooooooo	-13.432
mrrrr	-13.432
▁Popp	-13.432
▁disapp	-13.432
HHHHH	-13.4321
service	-13.4324
tension	-13.4324
▁auth	-13.4326
▁Compre	-13.4326
rroga	-13.4326
ontempt	-13.4327
▁Spl	-13.4327
#1	-13.4328
lusion	-13.4328
▁cau	-13.4329
oops	-13.4329
ulate	-13.433
Meek	-13.433
▁Yip	-13.433
appointment	-13.4331
▁pinc	-13.4331
▁audi	-13.4332
aulty	-13.4333
▁Whooooo	-13.4334
▁unrel	-13.4334
lease	-13.4335
▁tabl	-13.4337
olic	-13.4338
▁Que	-13.4338
▁Cri	-13.4338
▁gram	-13.4339
aaaaaaar	-13.434
▁fanc	-13.4341
▁guide	-13.4341
ns	-13.4341
credible	-13.4342
YO	-13.4342
fense	-13.4343
▁TO	-13.4343
ship	-13.4343
vid	-13.4345
antic	-13.4346
fe	-13.4347
league	-13.4348
▁tossin	-13.435
lar	-13.435
Bye	-13.4351
▁Dark	-13.4352
▁frig	-13.4352
▁Sha	-13.4353
▁THI	-13.4354
▁product	-13.4355
roll	-13.4356
edible	-13.4357
aaaaarrr	-13.4359
erior	-13.4363
▁exam	-13.4364
gggg	-13.4364
taneous	-13.4365
cinating	-13.4365
1,000	-13.4365
▁green	-13.4367
▁Fri	-13.4368
▁refle	-13.4368
waaaaa	-13.4369
EEEEEEEE	-13.4369
oise	-13.4369
elves	-13.437
pict	-13.4373
▁gawk	-13.4375
▁dump	-13.4376
fro	-13.4377
▁corro	-13.438
dated	-13.438
▁yester	-13.4381
▁num	-13.4381
▁env	-13.4382
▁dang	-13.4385
▁hob	-13.4385
Br	-13.4386
rrowed	-13.4387
ickle	-13.4387
mping	-13.4389
▁denie	-13.439
uffle	-13.439
▁Rook	-13.4391
inger	-13.4393
Clearly	-13.4394
▁$1	-13.4397
inv	-13.4398
fetch	-13.4398
▁edg	-13.4401
start	-13.4402
orge	-13.4403
▁reck	-13.4412
onclusive	-13.4412
formed	-13.4415
ragg	-13.4415
aitwaitwait	-13.4415
aughty	-13.4418
rvation	-13.4418
▁confi	-13.4426
uined	-13.4431
▁Silen	-13.4432
izz	-13.4432
lusions	-13.4432
ensitive	-13.4437
lines	-13.4437
reserved	-13.4442
arter	-13.4442
▁wearin	-13.4444
ssive	-13.4444
▁Cut	-13.4445
owder	-13.4449
cute	-13.445
▁puzzle	-13.4452
▁mig	-13.4453
lustered	-13.4454
controll	-13.4454
▁dece	-13.4454
Pro	-13.4456
uffy	-13.4467
▁shak	-13.4468
guise	-13.4471
▁slight	-13.4472
ctly	-13.4477
rism	-13.4479
truck	-13.448
gob	-13.4483
OUR	-13.4485
AR	-13.4495
pple	-13.4497
▁expens	-13.45
izing	-13.4505
artist	-13.4508
▁salut	-13.4509
▁scu	-13.4511
kno	-13.4512
▁hooo	-13.4514
▁fram	-13.4515
cco	-13.4516
erical	-13.4516
OS	-13.4518
▁Far	-13.4518
▁yo	-13.4521
▁2:3	-13.4528
ocati	-13.453
entic	-13.4531
▁Summ	-13.4535
▁roo	-13.4539
▁testifie	-13.4541
nish	-13.4544
▁rubbe	-13.4546
▁exa	-13.4548
gia	-13.4549
emb	-13.4554
fortunately	-13.4558
mic	-13.4559
scape	-13.456
▁bab	-13.4561
inda	-13.4562
ehind	-13.4564
▁occurre	-13.4565
xes	-13.4565
steak	-13.4567
▁demons	-13.4567
races	-13.4575
▁exc	-13.4577
udy	-13.4585
▁log	-13.4586
kidd	-13.4587
anner	-13.4591
▁Aaaaaaaaaaa	-13.4595
kling	-13.4598
rembling	-13.4598
same	-13.46
ictory	-13.4608
▁ult	-13.4615
ermission	-13.4621
▁nothin	-13.4627
▁Mean	-13.4629
▁simultaneous	-13.4629
ired	-13.463
▁Unbe	-13.4632
▁circumstan	-13.4633
▁mac	-13.4634
▁buyin	-13.4635
suspect	-13.4639
entation	-13.4643
▁vali	-13.4646
ightning	-13.4646
xim	-13.4655
▁Poo	-13.4659
yesight	-13.466
je	-13.4664
▁NOOOOOO	-13.4671
urp	-13.4672
urna	-13.4672
▁expos	-13.4673
vy	-13.4673
hands	-13.4679
size	-13.468
▁apprehend	-13.468
▁Mmp	-13.4683
dicu	-13.4683
▁Stri	-13.4684
▁Boy	-13.4686
arge	-13.4692
▁RO	-13.4698
coa	-13.4706
mise	-13.4709
▁pupp	-13.4719
error	-13.4725
brav	-13.4725
▁strik	-13.4726
Fu	-13.4731
bel	-13.4731
thful	-13.4732
def	-13.4734
▁Cod	-13.4736
▁Zzz	-13.4744
▁twin	-13.4756
▁touchin	-13.476
fere	-13.4762
orce	-13.4769
▁trave	-13.4779
wow	-13.4782
rofessionals	-13.4797
apers	-13.4802
▁conce	-13.4803
ates	-13.4807
ggg	-13.4813
losity	-13.4815
▁Exp	-13.4819
Isn	-13.4819
iscu	-13.4821
ysterious	-13.4823
seful	-13.4826
llets	-13.4828
prov	-13.4829
▁Nooo	-13.4833
omeo	-13.4835
raves	-13.4845
AAAAAHHHHH	-13.4846
▁feed	-13.4855
cos	-13.4864
since	-13.4864
asn	-13.4865
Aha	-13.487
▁crow	-13.4877
▁2:2	-13.4882
tterin	-13.4885
▁bench	-13.4886
Mist	-13.4903
Unre	-13.4916
▁Al	-13.4918
▁imposs	-13.4928
olks	-13.493
▁si	-13.493
▁Gum	-13.4936
ecor	-13.4937
nserted	-13.4954
▁empt	-13.4959
dust	-13.4961
asion	-13.4962
itation	-13.4999
▁marking	-13.5025
▁vic	-13.5026
▁listenin	-13.5034
▁cosm	-13.5039
▁Off	-13.5047
▁presum	-13.5052
ue	-13.5056
equ	-13.5056
acted	-13.5061
▁panick	-13.5064
tru	-13.5067
▁chan	-13.5073
▁tire	-13.5076
ec	-13.5077
thro	-13.5082
▁reall	-13.511
▁dea	-13.512
▁OR	-13.5125
IR	-13.5127
▁kin	-13.5127
▁bust	-13.5133
trangled	-13.5134
eased	-13.514
▁Lend	-13.5142
▁SU	-13.5143
ptions	-13.516
amily	-13.5162
tale	-13.5175
umph	-13.5184
ngs	-13.5229
▁suffic	-13.5231
mart	-13.5239
usine	-13.5246
▁#	-13.5248
▁grou	-13.5254
harley	-13.5257
rdy	-13.5262
kins	-13.5264
▁Sus	-13.527
thetic	-13.5274
shop	-13.5285
▁wastin	-13.5293
fternoon	-13.5295
▁mill	-13.5306
tag	-13.5313
tic	-13.5315
ez	-13.532
sque	-13.532
▁sel	-13.5336
▁Texa	-13.5352
▁flus	-13.5355
▁twi	-13.5356
nor	-13.5363
fat	-13.5382
mitted	-13.5394
nable	-13.5407
03	-13.5418
Forge	-13.542
ortun	-13.5435
llowing	-13.544
▁rea	-13.5441
teen	-13.5479
eclare	-13.5482
▁waitin	-13.5483
ism	-13.549
cus	-13.5494
eved	-13.5501
eduction	-13.5501
▁Jus	-13.5505
▁forg	-13.552
▁wri	-13.5524
gs	-13.5534
▁transp	-13.5544
rea	-13.5554
▁inci	-13.5578
▁cans	-13.5579
ids	-13.558
oped	-13.5591
ffer	-13.5593
AAAAH	-13.5615
!&	-13.5619
▁rat	-13.5619
idi	-13.5634
thering	-13.5635
heart	-13.5638
ooper	-13.5653
aaaaaaah	-13.5658
▁dista	-13.5662
▁teac	-13.5671
▁LO	-13.568
▁sor	-13.5682
raine	-13.5694
urdy	-13.5706
nely	-13.5718
med	-13.5721
illing	-13.5724
▁Zi	-13.5729
▁Fi	-13.5739
lags	-13.5768
▁Waaaaaaaaa	-13.5786
owing	-13.5804
ndering	-13.5805
pi	-13.5813
mmp	-13.5828
▁digit	-13.5844
:30.	-13.5847
wel	-13.5859
▁blo	-13.5871
erable	-13.5892
hill	-13.5902
▁permi	-13.5903
ngel	-13.5903
nishing	-13.5912
▁bud	-13.5921
erg	-13.5923
corp	-13.5926
uspicious	-13.5932
▁soot	-13.594
!!!?	-13.5949
▁range	-13.5953
antasi	-13.5984
nces	-13.5987
trap	-13.5998
▁Kno	-13.6006
things	-13.6008
▁relati	-13.6014
hour	-13.6021
lete	-13.6026
▁Art	-13.6034
sound	-13.6044
preme	-13.6049
va	-13.6063
▁weigh	-13.6068
▁signif	-13.6069
scenes	-13.6074
examined	-13.6088
wy	-13.6104
uns	-13.6123
enc	-13.6134
teful	-13.6141
orried	-13.6188
▁Ar	-13.6197
▁Mars	-13.6226
ru	-13.6226
▁pan	-13.625
names	-13.6265
tie	-13.6279
▁Suspe	-13.6281
etly	-13.6283
nel	-13.6302
▁Sup	-13.6304
lot	-13.6337
phones	-13.6341
▁Mess	-13.6355
▁bore	-13.6356
rep	-13.6371
▁Sta	-13.6371
days	-13.6374
believable	-13.6381
mill	-13.6389
mate	-13.6409
urtroom	-13.6451
etentio	-13.6476
ell	-13.6479
Ye	-13.6486
cis	-13.6491
9:00	-13.6494
got	-13.6528
▁tw	-13.6531
▁gour	-13.6534
▁ear	-13.6536
▁Bor	-13.6538
mony	-13.6553
▁standin	-13.6555
▁dre	-13.658
Wo	-13.6581
▁transferr	-13.6582
▁ok	-13.6585
aken	-13.6606
issed	-13.6627
ivision	-13.6628
gree	-13.6667
moo	-13.6676
cience	-13.6678
atching	-13.6686
▁Tex	-13.6687
▁swee	-13.6699
ura	-13.67
▁callin	-13.6711
axe	-13.6731
asted	-13.6733
-6...?	-13.6751
▁swa	-13.6763
▁patrolm	-13.6776
▁Light	-13.6777
trusting	-13.6781
▁eyed	-13.6784
▁tu	-13.6835
contradictions	-13.6837
lower	-13.6864
ections	-13.6931
Da	-13.6944
-6"	-13.6948
▁Whe	-13.6961
▁acc	-13.6963
hile	-13.6972
arewell	-13.7009
▁Sho	-13.7011
rried	-13.7037
▁sympathi	-13.7037
▁condo	-13.7066
▁inc	-13.7087
ip	-13.7093
stume	-13.7105
LI	-13.7107
ails	-13.7126
▁Ang	-13.7137
eaningless	-13.7141
Ho	-13.715
poster	-13.7174
ALL	-13.7182
esignation	-13.7185
addies	-13.7186
▁det	-13.7199
▁vo	-13.7265
elieved	-13.7266
poli	-13.7276
tually	-13.7286
omen	-13.729
rop	-13.729
eams	-13.7292
cky	-13.7293
▁deli	-13.7319
gall	-13.7353
ind	-13.7363
▁Bi	-13.7406
shutup	-13.7407
▁prom	-13.7412
▁pit	-13.7414
ccused	-13.7426
▁blurr	-13.7441
cen	-13.7462
▁requi	-13.7467
sitioned	-13.7473
acking	-13.748
splay	-13.7503
atched	-13.7521
spit	-13.7529
ross	-13.756
▁lau	-13.756
ean	-13.7585
tering	-13.761
sters	-13.7632
dled	-13.7643
▁ph	-13.77
ders	-13.7715
▁bus	-13.7722
usy	-13.7745
▁goin	-13.7773
di	-13.7789
▁lin	-13.7797
drum	-13.7808
signation	-13.7823
trage	-13.7841
ters	-13.786
eezing	-13.7866
met	-13.7933
▁Whoo	-13.798
▁bits	-13.7981
ea	-13.7994
isse	-13.8016
bul	-13.802
▁Kill	-13.8028
▁brighte	-13.8039
..?)	-13.8086
▁ze	-13.8106
▁frie	-13.8109
▁identif	-13.8117
sent	-13.8131
▁pump	-13.8147
▁proce	-13.8148
▁gentlem	-13.8148
▁happi	-13.8153
ilarity	-13.8157
DER	-13.8199
set	-13.8203
▁sen	-13.8208
▁Sil	-13.8211
▁blackmaile	-13.8239
▁unhapp	-13.824
tate	-13.827
ury	-13.829
uggi	-13.829
bee	-13.8296
inkle	-13.8305
ointless	-13.8327
nity	-13.8341
▁conducti	-13.8343
scar	-13.8385
pity	-13.8424
eals	-13.8441
▁te	-13.8444
dee	-13.845
ks	-13.8472
posed	-13.8483
▁2:15.	-13.8492
▁terrif	-13.8506
plying	-13.8517
maze	-13.8564
▁Dr	-13.8571
▁Sensi	-13.8661
bi	-13.8699
iat	-13.8732
ountry	-13.8757
stered	-13.8766
▁mou	-13.8786
stand	-13.8804
▁ret	-13.8822
dly	-13.8839
▁hea	-13.8844
ascot	-13.886
▁Cas	-13.8865
ove	-13.8876
eam	-13.8925
hief	-13.8936
▁origina	-13.9009
ading	-13.902
▁Wa	-13.9027
orning	-13.9028
istory	-13.9032
crimes	-13.9074
him	-13.9141
tempt	-13.9158
jo	-13.9165
mes	-13.9202
Cod	-13.9211
sually	-13.9268
alsified	-13.9272
▁3:1	-13.931
stated	-13.9317
tions	-13.9333
▁Chi	-13.9346
ha	-13.9347
▁Scar	-13.9393
fter	-13.9404
▁Dist	-13.9407
sary	-13.9484
▁et	-13.949
ened	-13.9498
ored	-13.9527
rra	-13.9544
▁showe	-13.9555
mmm	-13.9569
bey	-13.9579
▁Dre	-13.9584
aled	-13.9651
lake	-13.9699
ises	-13.9766
▁que	-13.9788
eb	-13.979
fend	-13.9811
▁pret	-13.9882
▁forb	-13.9902
▁tes	-13.9917
▁passi	-13.9967
!!	-14.0026
mily	-14.0053
▁photographs	-14.0096
▁sayin	-14.0133
eginning	-14.0167
bbed	-14.0177
gi	-14.0204
:15	-14.0308
▁Bla	-14.0339
sist	-14.0356
▁28.	-14.0366
tes	-14.0381
▁Sk	-14.0417
styl	-14.0458
tin	-14.0464
▁overse	-14.0492
▁mar	-14.0507
atin	-14.0526
▁Waaaaa	-14.0531
▁teache	-14.0546
stakes	-14.0601
lty	-14.0636
▁notifie	-14.064
ten	-14.0676
▁ass	-14.0679
ars	-14.07
gum	-14.0704
orized	-14.0705
▁Hee	-14.0729
rov	-14.077
eni	-14.0788
:50	-14.0797
▁Clea	-14.0885
rp	-14.0951
▁gam	-14.1028
nde	-14.105
▁minds	-14.1084
18	-14.1113
imply	-14.1171
ison	-14.12
gly	-14.1248
▁Hono	-14.126
oss	-14.1298
▁poun	-14.1316
oved	-14.1319
"?"	-14.1379
2:3	-14.1391
▁unre	-14.1405
urn	-14.1414
Du	-14.1474
cing	-14.1554
pan	-14.1561
erating	-14.1563
▁Sp	-14.1579
HH	-14.1584
illed	-14.1592
arsh	-14.1642
erp	-14.1651
borate	-14.1666
▁Mon	-14.1748
lute	-14.1762
▁squ	-14.1769
ndone	-14.1771
rel	-14.1808
▁activit	-14.1846
turned	-14.187
fer	-14.1887
▁Sit	-14.1953
knows	-14.1993
▁unl	-14.2025
ken	-14.2064
▁gran	-14.2065
Ga	-14.2102
▁Cor	-14.2135
......	-14.2151
▁sin	-14.2159
served	-14.2167
Sp	-14.2187
▁girli	-14.2212
volve	-14.2295
ocked	-14.2295
▁En	-14.2309
ssion	-14.2325
▁ke	-14.2361
▁Te	-14.2388
lig	-14.2388
ocke	-14.2445
▁IT	-14.247
▁bushe	-14.2529
▁Na	-14.2589
overs	-14.2719
▁insta	-14.2746
ndan	-14.2752
Pat	-14.2788
topsy	-14.2856
mage	-14.2861
▁devo	-14.2877
▁insiste	-14.29
Aaaa	-14.2912
ightsee	-14.2934
▁readin	-14.2966
tur	-14.3015
▁sco	-14.3025
dn	-14.3084
giv	-14.3108
essed	-14.3118
ender	-14.3167
▁ne	-14.3172
oose	-14.3194
pying	-14.3211
tche	-14.328
cti	-14.3301
espair	-14.3325
shoes	-14.334
immed	-14.3364
uits	-14.3376
bot	-14.3471
usty	-14.3484
▁Mo	-14.3485
▁Aa	-14.3505
rned	-14.351
rasing	-14.3535
▁thr	-14.3544
ments	-14.358
▁Ni	-14.36
musing	-14.3633
nner	-14.3667
ton	-14.3678
mand	-14.3682
▁sis	-14.3699
▁inf	-14.3702
eping	-14.375
tw	-14.383
▁watche	-14.391
duce	-14.3923
Loo	-14.3969
void	-14.4238
▁Ja	-14.4251
lings	-14.4314
ou	-14.4316
hot	-14.4358
tentio	-14.4469
art	-14.4495
▁ove	-14.4542
▁WH	-14.4564
▁desp	-14.4716
cted	-14.4728
▁Fe	-14.4943
rgeous	-14.4977
2:30	-14.4981
▁rela	-14.5028
cks	-14.5038
dict	-14.5074
▁thinkin	-14.5091
▁Defen	-14.5114
gaz	-14.5179
anning	-14.5282
hanged	-14.5412
enny	-14.5421
OF	-14.5428
lice	-14.5455
1!	-14.5467
▁Investigat	-14.5526
EN	-14.557
went	-14.5591
▁cooperati	-14.5594
▁closes	-14.5659
ingle	-14.5696
▁determin	-14.5863
▁ext	-14.5895
conceivable	-14.5926
nless	-14.5993
▁(...	-14.6028
ris	-14.6091
unky	-14.6226
▁qui	-14.6236
▁mus	-14.6241
▁ann	-14.6263
ens	-14.6294
?"...	-14.6387
ched	-14.6401
inished	-14.6425
rror	-14.6455
▁...!!	-14.6463
Lo	-14.6675
ceased	-14.6735
eels	-14.6739
ater	-14.6796
▁tha	-14.6835
sy	-14.6839
pic	-14.6874
▁"'	-14.6902
areful	-14.6925
som	-14.6939
ps	-14.7082
ously	-14.7112
▁rocke	-14.7144
▁sla	-14.7221
ape	-14.7251
eling	-14.7261
bert	-14.7323
ieve	-14.7334
▁ni	-14.7359
▁arr	-14.7373
vious	-14.7406
nfession	-14.7482
even	-14.7631
tent	-14.7646
dan	-14.7647
cret	-14.767
▁Mu	-14.7728
mmed	-14.7792
ticipat	-14.7817
wo	-14.7861
rranged	-14.7872
nally	-14.7902
gardless	-14.7962
itten	-14.8001
▁medic	-14.8036
tacked	-14.8063
SE	-14.8081
/	-14.8119
$	-14.812
Q	-14.8121
q	-14.8122
▁fol	-14.8122
